{
  "version": "1.0",
  "truncation": null,
  "padding": null,
  "added_tokens": [
    {
      "id": 0,
      "content": "<|endoftext|>",
      "single_word": false,
      "lstrip": false,
      "rstrip": false,
      "normalized": false,
      "special": true
    },
    {
      "id": 1,
      "content": "<|padding|>",
      "single_word": false,
      "lstrip": false,
      "rstrip": false,
      "normalized": false,
      "special": true
    },
    {
      "id": 2,
      "content": "<|im_start|>",
      "single_word": false,
      "lstrip": false,
      "rstrip": false,
      "normalized": false,
      "special": true
    },
    {
      "id": 3,
      "content": "<|im_end|>",
      "single_word": false,
      "lstrip": false,
      "rstrip": false,
      "normalized": false,
      "special": true
    },
    {
      "id": 4,
      "content": "[PAD]",
      "single_word": false,
      "lstrip": false,
      "rstrip": false,
      "normalized": false,
      "special": true
    }
  ],
  "normalizer": {
    "type": "NFC"
  },
  "pre_tokenizer": {
    "type": "ByteLevel",
    "add_prefix_space": false,
    "trim_offsets": true,
    "use_regex": true
  },
  "post_processor": {
    "type": "TemplateProcessing",
    "single": [
      {
        "Sequence": {
          "id": "A",
          "type_id": 0
        }
      }
    ],
    "pair": [
      {
        "Sequence": {
          "id": "A",
          "type_id": 0
        }
      },
      {
        "Sequence": {
          "id": "B",
          "type_id": 1
        }
      }
    ],
    "special_tokens": {}
  },
  "decoder": {
    "type": "ByteLevel",
    "add_prefix_space": false,
    "trim_offsets": true,
    "use_regex": true
  },
  "model": {
    "type": "BPE",
    "dropout": null,
    "unk_token": null,
    "continuing_subword_prefix": null,
    "end_of_word_suffix": null,
    "fuse_unk": false,
    "byte_fallback": false,
    "ignore_merges": false,
    "vocab": {
      "<|endoftext|>": 0,
      "<|padding|>": 1,
      "<|im_start|>": 2,
      "<|im_end|>": 3,
      "[PAD]": 4,
      "!": 5,
      "\"": 6,
      "#": 7,
      "$": 8,
      "%": 9,
      "&": 10,
      "'": 11,
      "(": 12,
      ")": 13,
      "*": 14,
      "+": 15,
      ",": 16,
      "-": 17,
      ".": 18,
      "/": 19,
      "0": 20,
      "1": 21,
      "2": 22,
      "3": 23,
      "4": 24,
      "5": 25,
      "6": 26,
      "7": 27,
      "8": 28,
      "9": 29,
      ":": 30,
      ";": 31,
      "<": 32,
      "=": 33,
      ">": 34,
      "?": 35,
      "@": 36,
      "A": 37,
      "B": 38,
      "C": 39,
      "D": 40,
      "E": 41,
      "F": 42,
      "G": 43,
      "H": 44,
      "I": 45,
      "J": 46,
      "K": 47,
      "L": 48,
      "M": 49,
      "N": 50,
      "O": 51,
      "P": 52,
      "Q": 53,
      "R": 54,
      "S": 55,
      "T": 56,
      "U": 57,
      "V": 58,
      "W": 59,
      "X": 60,
      "Y": 61,
      "Z": 62,
      "[": 63,
      "\\": 64,
      "]": 65,
      "^": 66,
      "_": 67,
      "`": 68,
      "a": 69,
      "b": 70,
      "c": 71,
      "d": 72,
      "e": 73,
      "f": 74,
      "g": 75,
      "h": 76,
      "i": 77,
      "j": 78,
      "k": 79,
      "l": 80,
      "m": 81,
      "n": 82,
      "o": 83,
      "p": 84,
      "q": 85,
      "r": 86,
      "s": 87,
      "t": 88,
      "u": 89,
      "v": 90,
      "w": 91,
      "x": 92,
      "y": 93,
      "z": 94,
      "{": 95,
      "|": 96,
      "}": 97,
      "~": 98,
      "¡": 99,
      "¢": 100,
      "£": 101,
      "¤": 102,
      "¥": 103,
      "¦": 104,
      "§": 105,
      "¨": 106,
      "©": 107,
      "ª": 108,
      "«": 109,
      "¬": 110,
      "®": 111,
      "¯": 112,
      "°": 113,
      "±": 114,
      "²": 115,
      "³": 116,
      "´": 117,
      "µ": 118,
      "¶": 119,
      "·": 120,
      "¸": 121,
      "¹": 122,
      "º": 123,
      "»": 124,
      "¼": 125,
      "½": 126,
      "¾": 127,
      "¿": 128,
      "À": 129,
      "Á": 130,
      "Â": 131,
      "Ã": 132,
      "Ä": 133,
      "Å": 134,
      "Æ": 135,
      "Ç": 136,
      "È": 137,
      "É": 138,
      "Ê": 139,
      "Ë": 140,
      "Ì": 141,
      "Í": 142,
      "Î": 143,
      "Ï": 144,
      "Ð": 145,
      "Ñ": 146,
      "Ò": 147,
      "Ó": 148,
      "Ô": 149,
      "Õ": 150,
      "Ö": 151,
      "×": 152,
      "Ø": 153,
      "Ù": 154,
      "Ú": 155,
      "Û": 156,
      "Ü": 157,
      "Ý": 158,
      "Þ": 159,
      "ß": 160,
      "à": 161,
      "á": 162,
      "â": 163,
      "ã": 164,
      "ä": 165,
      "å": 166,
      "æ": 167,
      "ç": 168,
      "è": 169,
      "é": 170,
      "ê": 171,
      "ë": 172,
      "ì": 173,
      "í": 174,
      "î": 175,
      "ï": 176,
      "ð": 177,
      "ñ": 178,
      "ò": 179,
      "ó": 180,
      "ô": 181,
      "õ": 182,
      "ö": 183,
      "÷": 184,
      "ø": 185,
      "ù": 186,
      "ú": 187,
      "û": 188,
      "ü": 189,
      "ý": 190,
      "þ": 191,
      "ÿ": 192,
      "Ā": 193,
      "ā": 194,
      "Ă": 195,
      "ă": 196,
      "Ą": 197,
      "ą": 198,
      "Ć": 199,
      "ć": 200,
      "Ĉ": 201,
      "ĉ": 202,
      "Ċ": 203,
      "ċ": 204,
      "Č": 205,
      "č": 206,
      "Ď": 207,
      "ď": 208,
      "Đ": 209,
      "đ": 210,
      "Ē": 211,
      "ē": 212,
      "Ĕ": 213,
      "ĕ": 214,
      "Ė": 215,
      "ė": 216,
      "Ę": 217,
      "ę": 218,
      "Ě": 219,
      "ě": 220,
      "Ĝ": 221,
      "ĝ": 222,
      "Ğ": 223,
      "ğ": 224,
      "Ġ": 225,
      "ġ": 226,
      "Ģ": 227,
      "ģ": 228,
      "Ĥ": 229,
      "ĥ": 230,
      "Ħ": 231,
      "ħ": 232,
      "Ĩ": 233,
      "ĩ": 234,
      "Ī": 235,
      "ī": 236,
      "Ĭ": 237,
      "ĭ": 238,
      "Į": 239,
      "į": 240,
      "İ": 241,
      "ı": 242,
      "Ĳ": 243,
      "ĳ": 244,
      "Ĵ": 245,
      "ĵ": 246,
      "Ķ": 247,
      "ķ": 248,
      "ĸ": 249,
      "Ĺ": 250,
      "ĺ": 251,
      "Ļ": 252,
      "ļ": 253,
      "Ľ": 254,
      "ľ": 255,
      "Ŀ": 256,
      "ŀ": 257,
      "Ł": 258,
      "ł": 259,
      "Ń": 260,
      "Ġt": 261,
      "Ġa": 262,
      "in": 263,
      "he": 264,
      "re": 265,
      "on": 266,
      "Ġthe": 267,
      "er": 268,
      "Ġs": 269,
      "en": 270,
      "at": 271,
      "Ġc": 272,
      "nd": 273,
      "or": 274,
      "es": 275,
      "ing": 276,
      "it": 277,
      "Ġand": 278,
      "Ġo": 279,
      "Ġf": 280,
      "al": 281,
      "Ġp": 282,
      "an": 283,
      "is": 284,
      "Ġw": 285,
      "ou": 286,
      "Ġto": 287,
      "ion": 288,
      "Ġin": 289,
      "le": 290,
      "Ġof": 291,
      "Ġm": 292,
      "Ġb": 293,
      "ic": 294,
      "ar": 295,
      "Ġd": 296,
      "ed": 297,
      "ent": 298,
      "ro": 299,
      "Ġe": 300,
      "ct": 301,
      "as": 302,
      "ðŁ": 303,
      "ve": 304,
      "om": 305,
      "Ġre": 306,
      "us": 307,
      "Ġh": 308,
      "ce": 309,
      "Ġl": 310,
      "et": 311,
      "ĠðŁ": 312,
      "ĠĠ": 313,
      "ation": 314,
      "Ġth": 315,
      "im": 316,
      "ĠT": 317,
      "Ġn": 318,
      "ol": 319,
      "il": 320,
      "Ġfor": 321,
      "Ġg": 322,
      "ut": 323,
      "el": 324,
      "Ġy": 325,
      "Ġis": 326,
      "ch": 327,
      "id": 328,
      "ra": 329,
      "ow": 330,
      "st": 331,
      "ĠI": 332,
      "ig": 333,
      "Ġst": 334,
      "Ġyou": 335,
      "ur": 336,
      "ers": 337,
      "Ġpro": 338,
      "ith": 339,
      "ĠA": 340,
      "if": 341,
      "ate": 342,
      "iv": 343,
      "ul": 344,
      "ir": 345,
      "ess": 346,
      "ot": 347,
      "ĠS": 348,
      "Ġcon": 349,
      "Ġhe": 350,
      "Ġwith": 351,
      "ure": 352,
      "ly": 353,
      "ment": 354,
      "Ġas": 355,
      "Ġon": 356,
      "un": 357,
      "Ġan": 358,
      "Ġbe": 359,
      "am": 360,
      "ĠThe": 361,
      "ive": 362,
      "ag": 363,
      "Ġcan": 364,
      "ay": 365,
      "ab": 366,
      "Ġthat": 367,
      "ver": 368,
      "'s": 369,
      "Ġcom": 370,
      "Ġor": 371,
      "ity": 372,
      "Ġen": 373,
      "Ġit": 374,
      "se": 375,
      "qu": 376,
      "Ġex": 377,
      "ad": 378,
      "Ġv": 379,
      "pp": 380,
      "ĠC": 381,
      "ri": 382,
      "Ġare": 383,
      "ke": 384,
      "um": 385,
      "ect": 386,
      "Ġus": 387,
      "ist": 388,
      "th": 389,
      "od": 390,
      "em": 391,
      "ant": 392,
      "ore": 393,
      "Ġle": 394,
      "Ġal": 395,
      "Ġint": 396,
      "est": 397,
      "ial": 398,
      "ain": 399,
      "ĠH": 400,
      "Ġsu": 401,
      "iz": 402,
      "ere": 403,
      "ies": 404,
      "her": 405,
      "ec": 406,
      "ort": 407,
      "imp": 408,
      "ence": 409,
      "ust": 410,
      "op": 411,
      "igh": 412,
      "Ġch": 413,
      "ĠP": 414,
      "Ġne": 415,
      "res": 416,
      "nt": 417,
      "ions": 418,
      "ĠðŁĮ": 419,
      "act": 420,
      "Ġyour": 421,
      "Ġwor": 422,
      "ac": 423,
      "Ġwh": 424,
      "Ġimp": 425,
      "Ġ1": 426,
      "ĠE": 427,
      "Ġ\"": 428,
      "and": 429,
      "oc": 430,
      "os": 431,
      "ĊĠĠ": 432,
      "ld": 433,
      "pt": 434,
      "du": 435,
      "Ġsp": 436,
      "ance": 437,
      "og": 438,
      "Ġr": 439,
      "ine": 440,
      "Ġde": 441,
      "Ġcomp": 442,
      "ight": 443,
      "are": 444,
      "Ġad": 445,
      "all": 446,
      "age": 447,
      "king": 448,
      "ang": 449,
      "Ġma": 450,
      "able": 451,
      "ĠM": 452,
      "per": 453,
      "pl": 454,
      "ical": 455,
      "low": 456,
      "Ġte": 457,
      "Ġha": 458,
      "ff": 459,
      "rom": 460,
      "ĠIt": 461,
      "ĠB": 462,
      "Ġpl": 463,
      "ud": 464,
      "orm": 465,
      "Ġwe": 466,
      "ide": 467,
      "ĠW": 468,
      "ous": 469,
      "out": 470,
      "Ġsh": 471,
      "end": 472,
      "Ġu": 473,
      "our": 474,
      "art": 475,
      "ĠD": 476,
      "ind": 477,
      "Ġtheir": 478,
      "rou": 479,
      "ast": 480,
      "Ġ=": 481,
      "ill": 482,
      "Ġab": 483,
      "ĠR": 484,
      "Ġby": 485,
      "ĠO": 486,
      "cess": 487,
      "ations": 488,
      "ĠL": 489,
      "Ġ(": 490,
      "Ġcont": 491,
      "ru": 492,
      "Ġfe": 493,
      "form": 494,
      "ĠTh": 495,
      "ter": 496,
      "Ġres": 497,
      "Ġfrom": 498,
      "Ġ-": 499,
      "ific": 500,
      "ther": 501,
      "ces": 502,
      "reat": 503,
      "ell": 504,
      "ĠF": 505,
      "Ġhel": 506,
      "Ġhelp": 507,
      "Ġinc": 508,
      "Ġun": 509,
      "Ġme": 510,
      "Ġhave": 511,
      "gh": 512,
      "**": 513,
      "ep": 514,
      "ign": 515,
      "Ġem": 516,
      "ome": 517,
      "ip": 518,
      "ach": 519,
      "ks": 520,
      "Ġdat": 521,
      "Ġse": 522,
      "Ġqu": 523,
      "Ġmore": 524,
      "ans": 525,
      "Ġ2": 526,
      "Ġapp": 527,
      "vel": 528,
      "Ġat": 529,
      "ass": 530,
      "Ġj": 531,
      "ĠĠĠĠ": 532,
      "Ġac": 533,
      "ice": 534,
      "ite": 535,
      "ult": 536,
      "ress": 537,
      "ĠG": 538,
      "ib": 539,
      "Ġar": 540,
      "av": 541,
      "Ġcl": 542,
      "ĠThis": 543,
      "ost": 544,
      "ould": 545,
      "ds": 546,
      "Ġk": 547,
      "Ġsent": 548,
      "ie": 549,
      "ree": 550,
      "¸ı": 551,
      "ï¸ı": 552,
      "Ġwas": 553,
      "ction": 554,
      "iven": 555,
      "Ġthis": 556,
      "ning": 557,
      "ime": 558,
      "ual": 559,
      "Ġdis": 560,
      "Ġdata": 561,
      "Ġabout": 562,
      "The": 563,
      "ile": 564,
      "ition": 565,
      "ong": 566,
      "ful": 567,
      "ike": 568,
      "Ġtr": 569,
      "Ġcomm": 570,
      "lowing": 571,
      "Ġind": 572,
      "Ġsuch": 573,
      "Ġfol": 574,
      "yst": 575,
      "ge": 576,
      "ient": 577,
      "ated": 578,
      "ious": 579,
      "red": 580,
      "Ġhas": 581,
      "ap": 582,
      "ue": 583,
      "Ġeff": 584,
      "ility": 585,
      "Ġtra": 586,
      "ase": 587,
      "ace": 588,
      "fere": 589,
      "ood": 590,
      "Ġup": 591,
      "Ġro": 592,
      "Ġprov": 593,
      "ame": 594,
      "rib": 595,
      "Ġneed": 596,
      "ark": 597,
      "alth": 598,
      "ĠSure": 599,
      "ount": 600,
      "Ġits": 601,
      "now": 602,
      "Ġinto": 603,
      "ber": 604,
      "ities": 605,
      "Ġother": 606,
      "ĠN": 607,
      "ener": 608,
      "ory": 609,
      "Ġwhe": 610,
      "erv": 611,
      "Ġsentence": 612,
      "ustom": 613,
      "ize": 614,
      "Ġlike": 615,
      "oo": 616,
      "lic": 617,
      "Ġsc": 618,
      "Ġout": 619,
      "Ġso": 620,
      "ĠU": 621,
      "ich": 622,
      "ience": 623,
      "ments": 624,
      "Ġman": 625,
      "Ġprodu": 626,
      "Ġdes": 627,
      "Ġev": 628,
      "ary": 629,
      "ard": 630,
      "rough": 631,
      "Ġcons": 632,
      "ential": 633,
      "ne": 634,
      "chn": 635,
      "Ġper": 636,
      "ob": 637,
      "one": 638,
      "oy": 639,
      "Ġfollowing": 640,
      "xt": 641,
      "Ġany": 642,
      "Ġnew": 643,
      "led": 644,
      "Ġover": 645,
      "etw": 646,
      "Ġlear": 647,
      "Ġdif": 648,
      "ures": 649,
      "ystem": 650,
      "ry": 651,
      "Ġpers": 652,
      "ĠðŁĵ": 653,
      "ack": 654,
      "ĠIn": 655,
      "int": 656,
      "Ġtime": 657,
      "ors": 658,
      "reate": 659,
      "Ġhealth": 660,
      "ail": 661,
      "ating": 662,
      "olog": 663,
      "Ġstr": 664,
      "ph": 665,
      "les": 666,
      "Ġpr": 667,
      "Ġcustom": 668,
      "Ġthey": 669,
      "Ġknow": 670,
      "Ġgiven": 671,
      "erg": 672,
      "Ġuse": 673,
      "Ġrec": 674,
      "ater": 675,
      "Ġcol": 676,
      "ĠHere": 677,
      "Ġexper": 678,
      "Ġinter": 679,
      "Ġtechn": 680,
      "ms": 681,
      "ased": 682,
      "Ġnot": 683,
      "ons": 684,
      "Ġ3": 685,
      "ange": 686,
      "Ġass": 687,
      "Ġlead": 688,
      "Ġmake": 689,
      "Ġinv": 690,
      "so": 691,
      "pport": 692,
      "ject": 693,
      "ally": 694,
      "ĠðŁĮŁ": 695,
      "ov": 696,
      "nder": 697,
      "Ġher": 698,
      "Ġ+": 699,
      "Ġnum": 700,
      "ire": 701,
      "ents": 702,
      "Ġthrough": 703,
      "Ġtw": 704,
      "Ġprocess": 705,
      "ĠAI": 706,
      "get": 707,
      "ove": 708,
      "Ġdiffere": 709,
      "ely": 710,
      "olut": 711,
      "ns": 712,
      "Ġall": 713,
      "ĠJ": 714,
      "Ġthem": 715,
      "Ġval": 716,
      "Ġpre": 717,
      "``": 718,
      "Ġspec": 719,
      "Ġadv": 720,
      "Ġincl": 721,
      "Ġpe": 722,
      "Ġwhich": 723,
      "ia": 724,
      "ify": 725,
      "ative": 726,
      "Ġalso": 727,
      "Ġcreat": 728,
      "velop": 729,
      "put": 730,
      "ics": 731,
      "Ġimport": 732,
      "Ġmod": 733,
      "Ġdec": 734,
      "Ġrel": 735,
      "ef": 736,
      "lect": 737,
      "Ġpos": 738,
      "Ġph": 739,
      "Ġused": 740,
      "Ġsystem": 741,
      "Ġusing": 742,
      "Ġwork": 743,
      "ake": 744,
      "ound": 745,
      "Ġinform": 746,
      "Ġvar": 747,
      "Ġproduct": 748,
      "ys": 749,
      "Ġ**": 750,
      "Ġway": 751,
      "als": 752,
      "its": 753,
      "ĠSt": 754,
      "ings": 755,
      "very": 756,
      "Ġbut": 757,
      "ower": 758,
      "yp": 759,
      "anc": 760,
      "Ġtrans": 761,
      "ak": 762,
      "ness": 763,
      "ized": 764,
      "Ġ5": 765,
      "bs": 766,
      "ates": 767,
      "ural": 768,
      "iron": 769,
      "Ġadd": 770,
      "Ġfind": 771,
      "Ġinclud": 772,
      "Ġexp": 773,
      "oth": 774,
      "iness": 775,
      "Ġsome": 776,
      "Ġact": 777,
      "ple": 778,
      "Ġthere": 779,
      "Ġunder": 780,
      "Ġtwo": 781,
      "ear": 782,
      "Ġcommun": 783,
      "ergy": 784,
      "viron": 785,
      "Ġgo": 786,
      "ular": 787,
      "Ġperson": 788,
      "Ġredu": 789,
      "Ġsm": 790,
      "Ġam": 791,
      "ices": 792,
      "ft": 793,
      "ens": 794,
      "Ġke": 795,
      "Ġoff": 796,
      "Ġart": 797,
      "Ġfeel": 798,
      "Ġimpact": 799,
      "Ġlearning": 800,
      "ram": 801,
      "Ġlist": 802,
      "Ġworld": 803,
      "ĠHe": 804,
      "00": 805,
      "row": 806,
      "Ġra": 807,
      "Ġpot": 808,
      "vironment": 809,
      "ĊĠĠĠ": 810,
      "eng": 811,
      "olv": 812,
      "Ġtechnolog": 813,
      "Ġsoc": 814,
      "enc": 815,
      "Ġdet": 816,
      "een": 817,
      "ish": 818,
      "ise": 819,
      "Ġsign": 820,
      "Ġif": 821,
      "Ġenergy": 822,
      "ord": 823,
      "Ġdevelop": 824,
      "Ġimpro": 825,
      "tain": 826,
      "ond": 827,
      "Ġour": 828,
      "hat": 829,
      "ĠAd": 830,
      "lex": 831,
      "stand": 832,
      "etween": 833,
      "Ġpo": 834,
      "ild": 835,
      "Ġbetween": 836,
      "ract": 837,
      "enerate": 838,
      "ruct": 839,
      "Ġsec": 840,
      "gor": 841,
      "eg": 842,
      "uring": 843,
      "Ġinformation": 844,
      "ng": 845,
      "Ġbus": 846,
      "Ġform": 847,
      "ting": 848,
      "Ġbl": 849,
      "itive": 850,
      "riend": 851,
      "gan": 852,
      "ĠY": 853,
      "Ġeach": 854,
      "ife": 855,
      "Ġcar": 856,
      "uc": 857,
      "Ġca": 858,
      "line": 859,
      "round": 860,
      "arm": 861,
      "Ġenvironment": 862,
      "ivid": 863,
      "Ġfun": 864,
      "ĠĠĠĠĠ": 865,
      "Ġtyp": 866,
      "**:": 867,
      "rite": 868,
      "Ġdo": 869,
      "Ġcustomer": 870,
      "Ġhis": 871,
      "Ġsk": 872,
      "Ġwill": 873,
      "Ġco": 874,
      "Ġ4": 875,
      "dition": 876,
      "Ġprovid": 877,
      "Ġpotential": 878,
      "Ġeffect": 879,
      "Ġmed": 880,
      "ĠIf": 881,
      "iet": 882,
      "ub": 883,
      "Ġserv": 884,
      "Ġnat": 885,
      "ues": 886,
      "hes": 887,
      "crib": 888,
      "Ġresp": 889,
      "Ġimportant": 890,
      "Ġexam": 891,
      "ric": 892,
      "Ġwho": 893,
      "Ġmaking": 894,
      "Ġacc": 895,
      "Ġhum": 896,
      "Ġmain": 897,
      "gg": 898,
      "Ġequ": 899,
      "iqu": 900,
      "Ġone": 901,
      "Ġhow": 902,
      "Ġday": 903,
      "Ġchar": 904,
      "Ġquest": 905,
      "ivers": 906,
      "Ġthese": 907,
      "ives": 908,
      "ĠðŁİ": 909,
      "Ġpol": 910,
      "Ġpart": 911,
      "Ġexpl": 912,
      "Ġmet": 913,
      "Ġpat": 914,
      "ðŁĮ": 915,
      "Ġhad": 916,
      "âĢ": 917,
      "Ġsa": 918,
      "elf": 919,
      "angu": 920,
      "Ġprog": 921,
      "erm": 922,
      "Ġshe": 923,
      "Ġbusiness": 924,
      "Ġdel": 925,
      "Ġset": 926,
      "In": 927,
      "Ġplay": 928,
      "ll": 929,
      "Ġassist": 930,
      "Ġunderstand": 931,
      "ose": 932,
      "hip": 933,
      "Ġanal": 934,
      "Ġdifferent": 935,
      "Ġeng": 936,
      "Ġens": 937,
      "Ġsignific": 938,
      "Ġreg": 939,
      "ware": 940,
      "ook": 941,
      "Ġwhile": 942,
      "ividual": 943,
      "nce": 944,
      "ten": 945,
      "aking": 946,
      "Ġmodel": 947,
      "Ġdisc": 948,
      "Ġwhere": 949,
      "arket": 950,
      "ences": 951,
      "ĠðŁĺ": 952,
      "ability": 953,
      "Ġrem": 954,
      "ages": 955,
      "ality": 956,
      "ible": 957,
      "Ġindividual": 958,
      "--": 959,
      "Ġwater": 960,
      "wn": 961,
      "ble": 962,
      "ĠV": 963,
      "Ġcould": 964,
      "ering": 965,
      "Ġsupport": 966,
      "Ġwould": 967,
      "ribut": 968,
      "Ġrep": 969,
      "ily": 970,
      "Ġspecific": 971,
      "Ġfl": 972,
      "ople": 973,
      "Ġchall": 974,
      "Ġprovide": 975,
      "te": 976,
      "Ġtas": 977,
      "Ġlangu": 978,
      "Ġins": 979,
      "Ġbec": 980,
      "Ġhigh": 981,
      "Ġfree": 982,
      "Ġvarious": 983,
      "olution": 984,
      "Ġwell": 985,
      "ict": 986,
      "ization": 987,
      "ident": 988,
      "Ġec": 989,
      "Ġcomput": 990,
      "Ġim": 991,
      "ivity": 992,
      "Ġtext": 993,
      "Ġpower": 994,
      "Ġsum": 995,
      "ense": 996,
      "Ġtechnology": 997,
      "Ġcreate": 998,
      "Generate": 999,
      "ew": 1000,
      "irst": 1001,
      "rit": 1002,
      "omm": 1003,
      "Ġaut": 1004,
      "Ġele": 1005,
      "ĠPro": 1006,
      ".\"": 1007,
      "nect": 1008,
      "Ġnumber": 1009,
      "onom": 1010,
      "Ġlife": 1011,
      "ources": 1012,
      "cribe": 1013,
      "Ġpeople": 1014,
      "Ġsignificant": 1015,
      "Ġexperience": 1016,
      "ĠHow": 1017,
      "Ġbr": 1018,
      "ĠðŁį": 1019,
      "Ġkey": 1020,
      "ĠðŁ¤": 1021,
      "Ġpass": 1022,
      "Ġthree": 1023,
      "Ġstud": 1024,
      "ining": 1025,
      "Ġbu": 1026,
      "ĠðŁļ": 1027,
      "Ġcal": 1028,
      "ication": 1029,
      "Ġwhen": 1030,
      "ines": 1031,
      "Ġpres": 1032,
      "ling": 1033,
      "ork": 1034,
      "Ġbased": 1035,
      "Ġpersonal": 1036,
      "Ġmay": 1037,
      "Ġrev": 1038,
      "Ġcharact": 1039,
      "gorith": 1040,
      "ope": 1041,
      "Ġplan": 1042,
      "urn": 1043,
      "ĠLet": 1044,
      "Ġevery": 1045,
      "Ġappro": 1046,
      "Ġclass": 1047,
      "ts": 1048,
      "Ġrequ": 1049,
      "Ġperform": 1050,
      "ption": 1051,
      "ough": 1052,
      "old": 1053,
      "ode": 1054,
      "bject": 1055,
      "Ġfriend": 1056,
      "ick": 1057,
      "arch": 1058,
      "Ġaccess": 1059,
      "Ġdecis": 1060,
      "Ġprom": 1061,
      "use": 1062,
      "Ġwords": 1063,
      "Ġess": 1064,
      "ider": 1065,
      "Ġfeat": 1066,
      "Ġvis": 1067,
      "iew": 1068,
      "Ġfin": 1069,
      "ĠðŁı": 1070,
      "iss": 1071,
      "Ġref": 1072,
      "Ġatt": 1073,
      "Ġlanguage": 1074,
      "enef": 1075,
      "Ġmarket": 1076,
      "Ġsur": 1077,
      "Ġhuman": 1078,
      "Ġorgan": 1079,
      "Ġchalleng": 1080,
      "Ġret": 1081,
      "Des": 1082,
      "ateg": 1083,
      "Ġimprove": 1084,
      "Ġincre": 1085,
      "Ġag": 1086,
      "Ġpur": 1087,
      "Ġsocial": 1088,
      "Ġalgorith": 1089,
      "Ġgl": 1090,
      "Ġsimp": 1091,
      "Ġide": 1092,
      "ered": 1093,
      "ccess": 1094,
      "Ġstep": 1095,
      "ee": 1096,
      "fore": 1097,
      "hed": 1098,
      "Ġuser": 1099,
      "```": 1100,
      "ency": 1101,
      "Ġstory": 1102,
      "Ġconc": 1103,
      "any": 1104,
      "pect": 1105,
      "Ġfunction": 1106,
      "ants": 1107,
      "ights": 1108,
      "Ġdesign": 1109,
      "Ġmost": 1110,
      "ss": 1111,
      "Ġeffic": 1112,
      "Ġâ": 1113,
      "way": 1114,
      "Ġinf": 1115,
      "ited": 1116,
      "urther": 1117,
      "Ġla": 1118,
      "ĠK": 1119,
      "Ġent": 1120,
      "ĠThey": 1121,
      "Ġhand": 1122,
      "Ġask": 1123,
      "ĠCh": 1124,
      "Ġ10": 1125,
      "Ġleading": 1126,
      "Ġinvolv": 1127,
      "cul": 1128,
      "Ġed": 1129,
      "Ġcle": 1130,
      "ases": 1131,
      "yth": 1132,
      "Ġword": 1133,
      "Ġfore": 1134,
      "Ġbenef": 1135,
      "iving": 1136,
      "Ġx": 1137,
      "ditionally": 1138,
      "Ġgra": 1139,
      "ck": 1140,
      "ym": 1141,
      "Ġlong": 1142,
      "cial": 1143,
      "Ġcor": 1144,
      "ital": 1145,
      "Ġreduce": 1146,
      "Ġincluding": 1147,
      "Ġend": 1148,
      "Ġtre": 1149,
      "Ġprot": 1150,
      "Ġexample": 1151,
      "ream": 1152,
      "Ġcount": 1153,
      "Ġopt": 1154,
      "ĠCon": 1155,
      "Ġresult": 1156,
      "bers": 1157,
      "Ġ6": 1158,
      "ational": 1159,
      "ax": 1160,
      "Ġche": 1161,
      "ries": 1162,
      "Ġlove": 1163,
      "Ġve": 1164,
      "imate": 1165,
      "Ġinst": 1166,
      "Ġsoft": 1167,
      "Ġcontent": 1168,
      "Ġmin": 1169,
      "Ġdevelopment": 1170,
      "ze": 1171,
      "ustain": 1172,
      "ĠðŁĺĬ": 1173,
      "cing": 1174,
      "ade": 1175,
      "ĠðŁĮį": 1176,
      "Ġboth": 1177,
      "Ġjust": 1178,
      "Ġknown": 1179,
      "Ġhelps": 1180,
      "up": 1181,
      "Ġcur": 1182,
      "Ġlar": 1183,
      "Ġgreat": 1184,
      "Ġprof": 1185,
      "'t": 1186,
      "Ġbeen": 1187,
      "Ġown": 1188,
      "ery": 1189,
      "Ġtop": 1190,
      "Ġcontribut": 1191,
      "Ġhope": 1192,
      "Ġsmall": 1193,
      "Ġpositive": 1194,
      "Ġext": 1195,
      "aging": 1196,
      "care": 1197,
      "Create": 1198,
      "ather": 1199,
      "Ġenc": 1200,
      "omp": 1201,
      "Ġconnect": 1202,
      "ploy": 1203,
      "These": 1204,
      "Ġ[": 1205,
      "izing": 1206,
      "less": 1207,
      "Ġgener": 1208,
      "Ġoften": 1209,
      "Ġwhat": 1210,
      "Ġquestions": 1211,
      "aut": 1212,
      "ique": 1213,
      "Ġtasks": 1214,
      "urity": 1215,
      "ional": 1216,
      "ination": 1217,
      "Ġcru": 1218,
      "Ġdr": 1219,
      "Ġlet": 1220,
      "ically": 1221,
      "Ġteam": 1222,
      "Ġshould": 1223,
      "oura": 1224,
      "Ġstate": 1225,
      "Ġexpress": 1226,
      "Ġchange": 1227,
      "agement": 1228,
      "ills": 1229,
      "Ġcrucial": 1230,
      "Ġfood": 1231,
      "Ġmach": 1232,
      "uture": 1233,
      "Ġsuccess": 1234,
      "Ġproble": 1235,
      "mer": 1236,
      "Ġpop": 1237,
      "Ġstart": 1238,
      "Describe": 1239,
      "Ġgrow": 1240,
      "Ġiss": 1241,
      "ĊĠĠĠĠĠĠĠ": 1242,
      "read": 1243,
      "cept": 1244,
      "ied": 1245,
      "Ġfact": 1246,
      "Ġdist": 1247,
      "Ġpoint": 1248,
      "Ġcontin": 1249,
      "ĠAdditionally": 1250,
      "Ġair": 1251,
      "Ġfam": 1252,
      "Ġapplic": 1253,
      "Ġno": 1254,
      "Ġindust": 1255,
      "Ġnatural": 1256,
      "Ġcomplex": 1257,
      "Ġeffective": 1258,
      "Ġprogram": 1259,
      "der": 1260,
      "here": 1261,
      "ĠInt": 1262,
      "Ġinteract": 1263,
      "Ġmy": 1264,
      "Ġheart": 1265,
      "ĠEn": 1266,
      "nces": 1267,
      "reen": 1268,
      "Ġsol": 1269,
      "ards": 1270,
      "Ġloc": 1271,
      "Ġensure": 1272,
      "ython": 1273,
      "ink": 1274,
      "ructure": 1275,
      "Ġlight": 1276,
      "own": 1277,
      "Ġindividuals": 1278,
      "ian": 1279,
      "Ġenh": 1280,
      "Ġsustain": 1281,
      "Ġ0": 1282,
      "Ġmem": 1283,
      "Ġtake": 1284,
      "Ġread": 1285,
      "Ġvalue": 1286,
      "ĠTo": 1287,
      "Ġ8": 1288,
      "Ġwebs": 1289,
      "Ġsun": 1290,
      "ever": 1291,
      "xpl": 1292,
      "ism": 1293,
      "Ġbeh": 1294,
      "Ġaddress": 1295,
      "Ġstrateg": 1296,
      "Ġfi": 1297,
      "Ġgu": 1298,
      "10": 1299,
      "Ġfuture": 1300,
      "Ġmat": 1301,
      "ĠAn": 1302,
      "bot": 1303,
      "raph": 1304,
      "ellig": 1305,
      "Ġident": 1306,
      "esp": 1307,
      "ibility": 1308,
      "Ġcreating": 1309,
      "Ġanaly": 1310,
      "Ġbel": 1311,
      "Ġinput": 1312,
      "ĠðŁĲ": 1313,
      "Ġchallenges": 1314,
      "Ġ<": 1315,
      "Ġfirst": 1316,
      "iety": 1317,
      "Ġ*": 1318,
      "Ġtoget": 1319,
      "Ġtogether": 1320,
      "Ġcour": 1321,
      "Ġfurther": 1322,
      "Ġmult": 1323,
      "Ġbra": 1324,
      "ems": 1325,
      "ock": 1326,
      "Ġmany": 1327,
      "hing": 1328,
      "Ġop": 1329,
      "ĠShe": 1330,
      "Ġcharacter": 1331,
      "ĠIm": 1332,
      "Ġhere": 1333,
      "'d": 1334,
      "joy": 1335,
      "ilities": 1336,
      "âĢį": 1337,
      "Write": 1338,
      "ren": 1339,
      "Ġback": 1340,
      "ðŁĶ": 1341,
      "Ġhist": 1342,
      "Ġinvolves": 1343,
      "hen": 1344,
      "Ġland": 1345,
      "ars": 1346,
      "ocus": 1347,
      "ĠUn": 1348,
      "Ġfeatures": 1349,
      "Ġonline": 1350,
      "io": 1351,
      "Ġoverall": 1352,
      "ables": 1353,
      "Ġessential": 1354,
      "Ġsoftware": 1355,
      "Ġreal": 1356,
      "icle": 1357,
      "nov": 1358,
      "Ġthan": 1359,
      "Ġgood": 1360,
      "Ġcare": 1361,
      "lows": 1362,
      "verall": 1363,
      "ty": 1364,
      "Ġeconom": 1365,
      "Ġris": 1366,
      "hod": 1367,
      "ľ¨": 1368,
      "Ġaround": 1369,
      "ote": 1370,
      "Ġsee": 1371,
      "ĠRe": 1372,
      "Ġprotect": 1373,
      "What": 1374,
      "Ġpract": 1375,
      "Ġconf": 1376,
      "Ġget": 1377,
      "Ġlevel": 1378,
      "Ġanim": 1379,
      "Ġjour": 1380,
      "ern": 1381,
      "Ġeduc": 1382,
      "ĠWhat": 1383,
      "Ġunique": 1384,
      "ertain": 1385,
      "ately": 1386,
      "Ġconsider": 1387,
      "Ġfil": 1388,
      "Ġfac": 1389,
      "Ġstore": 1390,
      "Ġexperi": 1391,
      "Ġunderstanding": 1392,
      "So": 1393,
      "port": 1394,
      "Ġbre": 1395,
      "Ġdem": 1396,
      "Ġconv": 1397,
      "Ġfive": 1398,
      "ney": 1399,
      "be": 1400,
      "Th": 1401,
      "ving": 1402,
      "Ġcost": 1403,
      "Ġbeaut": 1404,
      "ols": 1405,
      "Ġnetw": 1406,
      "Ġcode": 1407,
      "Ġdivers": 1408,
      "ublic": 1409,
      "elligence": 1410,
      "Ġassistance": 1411,
      "Ġinteg": 1412,
      "Ġdep": 1413,
      "Ġ|": 1414,
      "Ġrele": 1415,
      "Ġstrong": 1416,
      "Ġposs": 1417,
      "anced": 1418,
      "chie": 1419,
      "Ġsense": 1420,
      "ggest": 1421,
      "Ġperformance": 1422,
      "Ġmachine": 1423,
      "ner": 1424,
      "Ġdev": 1425,
      "Ġsal": 1426,
      "obal": 1427,
      "ĠYou": 1428,
      "Ġwebsite": 1429,
      "Ġsystems": 1430,
      "Ġmethod": 1431,
      "ined": 1432,
      "Ġwere": 1433,
      "Ġeven": 1434,
      "mar": 1435,
      "Ġcommon": 1436,
      "Ġrespons": 1437,
      "Ġbeing": 1438,
      "Ġfocus": 1439,
      "Ġrole": 1440,
      "ðŁĩ": 1441,
      "ĠðŁ§": 1442,
      "Ġaud": 1443,
      "els": 1444,
      "oss": 1445,
      "ĠðŁĴ": 1446,
      "abor": 1447,
      "Ġphys": 1448,
      "Ġmedia": 1449,
      "Ġpar": 1450,
      "Ġobject": 1451,
      "Ġproject": 1452,
      "ogn": 1453,
      "Ġav": 1454,
      "Ġdig": 1455,
      "Ġhealthcare": 1456,
      "Ġcommunication": 1457,
      "air": 1458,
      "ĠPl": 1459,
      "ificial": 1460,
      "Ġmov": 1461,
      "aste": 1462,
      "ĠAs": 1463,
      "Ġcourse": 1464,
      "oon": 1465,
      "Ġfu": 1466,
      "Ġdef": 1467,
      "Ġhapp": 1468,
      "ðŁĴ": 1469,
      "oice": 1470,
      "cri": 1471,
      "Ġexc": 1472,
      "ĠĠĠĠĠĠĠĠĠ": 1473,
      "let": 1474,
      "ray": 1475,
      "pportun": 1476,
      "Ġfew": 1477,
      "ath": 1478,
      "etter": 1479,
      "ember": 1480,
      "Ġbenefits": 1481,
      "xplain": 1482,
      "Ġjourney": 1483,
      "Ġwithin": 1484,
      "ples": 1485,
      "Ġneeds": 1486,
      "ody": 1487,
      "Ġdeterm": 1488,
      "Ġbuild": 1489,
      "ffic": 1490,
      "ared": 1491,
      "rodu": 1492,
      "Ġsecurity": 1493,
      "Ġsaf": 1494,
      "Ġcomputer": 1495,
      "ins": 1496,
      "apt": 1497,
      "Ġinnov": 1498,
      "arth": 1499,
      "ross": 1500,
      "Ġemb": 1501,
      "Ġforest": 1502,
      "'m": 1503,
      "com": 1504,
      "Ġwithout": 1505,
      "Ġequation": 1506,
      "Ġmon": 1507,
      "Ġment": 1508,
      "Ġ$": 1509,
      "Ġbest": 1510,
      "ets": 1511,
      "Ġ7": 1512,
      "Ġthen": 1513,
      "Ġwarm": 1514,
      "Ġmean": 1515,
      "Ġpred": 1516,
      "day": 1517,
      "Ġchang": 1518,
      "Ġcalcul": 1519,
      "tle": 1520,
      "ouse": 1521,
      "Ġlearn": 1522,
      "Ġbetter": 1523,
      "ĠThese": 1524,
      "ĠOnce": 1525,
      "Ġtest": 1526,
      "Ġnature": 1527,
      "Ġcap": 1528,
      "Ġresources": 1529,
      "Ġintern": 1530,
      "ysis": 1531,
      "Ġfriends": 1532,
      "ron": 1533,
      "Ġstand": 1534,
      "Ġactiv": 1535,
      "Ġfound": 1536,
      "erest": 1537,
      "ĠðŁĵļ": 1538,
      "Ġservice": 1539,
      "ourage": 1540,
      "lu": 1541,
      "âľ¨": 1542,
      "Ġusers": 1543,
      "Ġproblem": 1544,
      "ced": 1545,
      "hor": 1546,
      "Ġsw": 1547,
      "acy": 1548,
      "avi": 1549,
      "Ġelect": 1550,
      "Ġopportun": 1551,
      "rop": 1552,
      "Ġrange": 1553,
      "Explain": 1554,
      "Ġmade": 1555,
      "ways": 1556,
      "ancial": 1557,
      "ĠEx": 1558,
      "Ġupon": 1559,
      "Ġtype": 1560,
      "Ġmaintain": 1561,
      "ex": 1562,
      "Ġtem": 1563,
      "Ġachie": 1564,
      "Ġclimate": 1565,
      "Ġ9": 1566,
      "Ġyear": 1567,
      "):": 1568,
      "yn": 1569,
      "Ġsimple": 1570,
      "Ġtri": 1571,
      "oring": 1572,
      "Ġeas": 1573,
      "vert": 1574,
      "Ġjob": 1575,
      "dit": 1576,
      "fter": 1577,
      "ming": 1578,
      "Ġreturn": 1579,
      "Ġ20": 1580,
      "Ġprev": 1581,
      "Ġcomb": 1582,
      "Ġcompany": 1583,
      "Ġelements": 1584,
      "Ġ/": 1585,
      "ĠĊ": 1586,
      "Ġsustainable": 1587,
      "cc": 1588,
      "ired": 1589,
      "Ġel": 1590,
      "omet": 1591,
      "Ġonly": 1592,
      "Ġcult": 1593,
      "Ġbo": 1594,
      "Ġsub": 1595,
      "Ġoptim": 1596,
      "iency": 1597,
      "atform": 1598,
      "Ġoper": 1599,
      "lement": 1600,
      "ðŁį": 1601,
      "Ġtim": 1602,
      "rect": 1603,
      "Ġ'": 1604,
      "iment": 1605,
      "Ġdeep": 1606,
      "Ġarticle": 1607,
      "Ġproviding": 1608,
      "Ġbusinesses": 1609,
      "ĠEm": 1610,
      "Ġlarge": 1611,
      "dent": 1612,
      "ĠðŁĩ": 1613,
      "Ġstay": 1614,
      "labor": 1615,
      "Ġenjoy": 1616,
      "ains": 1617,
      "ĠWe": 1618,
      "ients": 1619,
      "oh": 1620,
      "uss": 1621,
      "ails": 1622,
      "Ġnumbers": 1623,
      "Ġrepres": 1624,
      "Ġglobal": 1625,
      "ats": 1626,
      "Ġcommunity": 1627,
      "Ġpatter": 1628,
      "Ġalgorithm": 1629,
      "Ġspe": 1630,
      "Ġdown": 1631,
      "Ġstre": 1632,
      "Ġinterest": 1633,
      "roup": 1634,
      "ci": 1635,
      "lish": 1636,
      "yc": 1637,
      "Ġduring": 1638,
      "Ġnam": 1639,
      "Ġshow": 1640,
      "Ġ#": 1641,
      "Ġrest": 1642,
      "Ġnight": 1643,
      "Ġways": 1644,
      "Ġskills": 1645,
      "ier": 1646,
      "light": 1647,
      "Ġidentify": 1648,
      "Ġwant": 1649,
      "aring": 1650,
      "ĠAl": 1651,
      "az": 1652,
      "lut": 1653,
      "Ġfiel": 1654,
      "uation": 1655,
      "Ġmind": 1656,
      "Ġconcept": 1657,
      "Ġsever": 1658,
      "mat": 1659,
      "Ġmag": 1660,
      "Ġsit": 1661,
      "Ġmus": 1662,
      "ument": 1663,
      "Ġarea": 1664,
      "Ġmeas": 1665,
      "ommend": 1666,
      "Given": 1667,
      "self": 1668,
      "Ġpublic": 1669,
      "Ġhome": 1670,
      "Ġproducts": 1671,
      "new": 1672,
      "Ġinvest": 1673,
      "Ġbehavi": 1674,
      "being": 1675,
      "Ġactivities": 1676,
      "Name": 1677,
      "over": 1678,
      "pr": 1679,
      "Ġ{": 1680,
      "Ġpartic": 1681,
      "Ġstatement": 1682,
      "Ġaudience": 1683,
      "âĻ": 1684,
      "Ġright": 1685,
      "ik": 1686,
      "ix": 1687,
      "ved": 1688,
      "Ġitems": 1689,
      "ĠDe": 1690,
      "Ġinclude": 1691,
      "Ġexperiences": 1692,
      "dentify": 1693,
      "ĠEng": 1694,
      "Ġcustomers": 1695,
      "Ġideas": 1696,
      "Ġapplications": 1697,
      "ĠBy": 1698,
      "ending": 1699,
      "Ġsteps": 1700,
      "Ġseveral": 1701,
      "rent": 1702,
      "irt": 1703,
      "Ġintelligence": 1704,
      "Ġemploy": 1705,
      "ature": 1706,
      "Ġrese": 1707,
      "Ġorder": 1708,
      "Ġself": 1709,
      "rast": 1710,
      "til": 1711,
      "ified": 1712,
      "Ġothers": 1713,
      "Ġdecision": 1714,
      "ĠAr": 1715,
      "orts": 1716,
      "Ġplatform": 1717,
      "ibr": 1718,
      "vant": 1719,
      "Ġcr": 1720,
      "icious": 1721,
      "Ġ19": 1722,
      "Ġfinancial": 1723,
      "Ġgreen": 1724,
      "Ġgrowth": 1725,
      "Ġbal": 1726,
      "----": 1727,
      "Ġcent": 1728,
      "Ġgen": 1729,
      "pping": 1730,
      "str": 1731,
      "Ġadvent": 1732,
      "Ġprofess": 1733,
      "sc": 1734,
      "ention": 1735,
      "ĠðŁĮĲ": 1736,
      "ata": 1737,
      "Ġefficient": 1738,
      "erson": 1739,
      "amp": 1740,
      "Ġconsum": 1741,
      "Ġopen": 1742,
      "Ġful": 1743,
      "ĠPython": 1744,
      "Ġdecisions": 1745,
      "ause": 1746,
      "Ġdigital": 1747,
      "ted": 1748,
      ").": 1749,
      "Ġser": 1750,
      "back": 1751,
      "ulation": 1752,
      "Ġeth": 1753,
      "ðŁĵ": 1754,
      "âĢįâĻ": 1755,
      "Ġphysical": 1756,
      "Ġrequire": 1757,
      "Ġfamily": 1758,
      "ration": 1759,
      "erc": 1760,
      "ale": 1761,
      "Ġbi": 1762,
      "Ġalways": 1763,
      "Ġcapt": 1764,
      "Ġservices": 1765,
      "This": 1766,
      "Ġter": 1767,
      "Ġsym": 1768,
      "Ġquality": 1769,
      "Ġprovides": 1770,
      "rol": 1771,
      "Ġgr": 1772,
      "Ġpresent": 1773,
      "'re": 1774,
      "Ġpersonalized": 1775,
      "ĠOf": 1776,
      "Ġemot": 1777,
      "Ġmeaning": 1778,
      "Ġpredict": 1779,
      "fact": 1780,
      "Ġsat": 1781,
      "Ġmot": 1782,
      "ash": 1783,
      "ĠEarth": 1784,
      "Ġweb": 1785,
      "asing": 1786,
      "ĊĠĠĠĠĠĠĠĠĠĠĠ": 1787,
      "Ġplace": 1788,
      "Ġkeep": 1789,
      "Ġmarketing": 1790,
      "Ġhistory": 1791,
      "Ġ`": 1792,
      "ories": 1793,
      "emember": 1794,
      "Ġmeet": 1795,
      "Ġinflu": 1796,
      "Ġgroup": 1797,
      "ived": 1798,
      "Ġvalu": 1799,
      "Ġcorrect": 1800,
      "ank": 1801,
      "Ġrelations": 1802,
      "ĠðŁ¤ĸ": 1803,
      "),": 1804,
      "iting": 1805,
      "ĠInd": 1806,
      "thing": 1807,
      "Ġrecommend": 1808,
      "As": 1809,
      "Ġtow": 1810,
      "Ġreach": 1811,
      "Ġissues": 1812,
      "Ġtransport": 1813,
      "Ġlog": 1814,
      "ĠWh": 1815,
      "elling": 1816,
      "Ġpollut": 1817,
      "Ġlit": 1818,
      "ides": 1819,
      "ffect": 1820,
      "Ġevents": 1821,
      "Ġbefore": 1822,
      "ape": 1823,
      "Ġcaus": 1824,
      "Ġinsp": 1825,
      "Con": 1826,
      "Ġhealthy": 1827,
      "Ġexplore": 1828,
      "ĠHowever": 1829,
      "Ġallows": 1830,
      "ĠðŁļĢ": 1831,
      "Ġimportance": 1832,
      "Ġpopular": 1833,
      "bon": 1834,
      "ists": 1835,
      "Ġreducing": 1836,
      "Ġsim": 1837,
      "Ġsources": 1838,
      "ĠðŁĽ": 1839,
      "ĠSp": 1840,
      "Ġapproach": 1841,
      "lass": 1842,
      "ĊĠ": 1843,
      "ances": 1844,
      "olving": 1845,
      "Ġpatterns": 1846,
      "rior": 1847,
      "iple": 1848,
      "Ġenvironmental": 1849,
      "Ġstructure": 1850,
      "Ġenhance": 1851,
      "lus": 1852,
      "ĠOne": 1853,
      "Ġamount": 1854,
      "Ġcontribute": 1855,
      "Ġdiverse": 1856,
      "Ġrelationship": 1857,
      "imately": 1858,
      "Ġgame": 1859,
      "ĠWith": 1860,
      "Ġscient": 1861,
      "Ġefficiency": 1862,
      "Rew": 1863,
      "ext": 1864,
      "Ġer": 1865,
      "Ġsound": 1866,
      "Ġability": 1867,
      "avor": 1868,
      "irtual": 1869,
      "Ġsqu": 1870,
      "Ġimplement": 1871,
      "Ġalgorithms": 1872,
      "eet": 1873,
      "ral": 1874,
      "Ġwind": 1875,
      "Ġleg": 1876,
      "ource": 1877,
      "Ġautom": 1878,
      "Ġeducation": 1879,
      "Ġi": 1880,
      "cho": 1881,
      "akes": 1882,
      "Ġmodels": 1883,
      "meric": 1884,
      "Ġresearch": 1885,
      "Ġrecogn": 1886,
      "Ġartificial": 1887,
      "ĠHey": 1888,
      "__": 1889,
      "Ġshort": 1890,
      "edback": 1891,
      "ĠApp": 1892,
      "ohn": 1893,
      "Ġallowing": 1894,
      "osp": 1895,
      "ooking": 1896,
      "olutions": 1897,
      "face": 1898,
      "Ġadapt": 1899,
      "Ġanalysis": 1900,
      "yle": 1901,
      "Ġlay": 1902,
      "Ġproper": 1903,
      "Ġgover": 1904,
      "Ġeconomic": 1905,
      "ĠðŁĮ¿": 1906,
      "Ġvalues": 1907,
      "Ġpromot": 1908,
      "Identify": 1909,
      "Ġarr": 1910,
      "oney": 1911,
      "Ġcolor": 1912,
      "Ġoffer": 1913,
      "Ġimm": 1914,
      "Ġprint": 1915,
      "ave": 1916,
      "cy": 1917,
      "pre": 1918,
      "iver": 1919,
      "Ġrun": 1920,
      "Ġsearch": 1921,
      "Ġacross": 1922,
      "Ġevent": 1923,
      "oid": 1924,
      "rue": 1925,
      "Ġmanagement": 1926,
      "\".": 1927,
      "'ll": 1928,
      "Ġthough": 1929,
      "ategor": 1930,
      "Ġoffers": 1931,
      "Ġsky": 1932,
      "Ġline": 1933,
      "Ġname": 1934,
      "Ġformul": 1935,
      "Ġrevolution": 1936,
      "Rewrite": 1937,
      "20": 1938,
      "por": 1939,
      "Ġbook": 1940,
      "Ġemp": 1941,
      "Ġrobot": 1942,
      "Ġdelicious": 1943,
      "Ġclean": 1944,
      "Ġnetwork": 1945,
      "Ġtemper": 1946,
      "Ġnamed": 1947,
      "Ġwrit": 1948,
      "Ġtravel": 1949,
      "Ġbehavior": 1950,
      "Ġprocesses": 1951,
      "Ġaccount": 1952,
      "Ġstrategies": 1953,
      "Ġaction": 1954,
      "ips": 1955,
      "Ġtraining": 1956,
      "Ġgoals": 1957,
      "issions": 1958,
      "Ġpurp": 1959,
      "Ġwide": 1960,
      "avig": 1961,
      "ĠUse": 1962,
      "iques": 1963,
      "Ġclear": 1964,
      "Ġgovern": 1965,
      "ward": 1966,
      "Ĥï¸ı": 1967,
      "Ġcat": 1968,
      "Ġarg": 1969,
      "aterial": 1970,
      "Ġvisual": 1971,
      "Ġcurrent": 1972,
      "pro": 1973,
      "atic": 1974,
      "place": 1975,
      "Ġlevels": 1976,
      "rase": 1977,
      "Ġver": 1978,
      "Ġdon": 1979,
      "Ġdire": 1980,
      "ĠAmeric": 1981,
      "phas": 1982,
      "Ġrelated": 1983,
      "Ġmental": 1984,
      "arget": 1985,
      "ĠThere": 1986,
      "Ġvill": 1987,
      "Ġspace": 1988,
      "Ġquestion": 1989,
      "ying": 1990,
      "Ġneg": 1991,
      "Ġregular": 1992,
      "Ġstudents": 1993,
      "Ġpoints": 1994,
      "Ġeffectively": 1995,
      "Ġsolve": 1996,
      "Ġmil": 1997,
      "Ġhim": 1998,
      "ĠCons": 1999,
      "Ġsuggest": 2000,
      "Ġdiscuss": 2001,
      "Ġtransportation": 2002,
      "AI": 2003,
      "Ġdra": 2004,
      "ength": 2005,
      "Ġwid": 2006,
      "Ġconst": 2007,
      "ledge": 2008,
      "ert": 2009,
      "Ġfactors": 2010,
      "Ġanimals": 2011,
      "Ġvaluable": 2012,
      "den": 2013,
      "iable": 2014,
      "ĠSo": 2015,
      "ferences": 2016,
      "âĢįâĻĤï¸ı": 2017,
      "Ġmom": 2018,
      "icate": 2019,
      "Ġdark": 2020,
      "tern": 2021,
      "Ġshare": 2022,
      "ification": 2023,
      "aves": 2024,
      "ĠYour": 2025,
      "Ġtypes": 2026,
      "Ġethical": 2027,
      "Ġsolutions": 2028,
      "Ġfre": 2029,
      "Ġcollabor": 2030,
      "fort": 2031,
      "ony": 2032,
      "Ġpain": 2033,
      "leep": 2034,
      "Ġbody": 2035,
      "ecess": 2036,
      "ĠUnited": 2037,
      "Ġsatis": 2038,
      "Ġformula": 2039,
      "for": 2040,
      "play": 2041,
      "Ġarray": 2042,
      "Ġprin": 2043,
      "nds": 2044,
      "Ġprior": 2045,
      "ude": 2046,
      "Ġcarbon": 2047,
      "Ġelse": 2048,
      "oud": 2049,
      "Ġrenew": 2050,
      "Ġanalyze": 2051,
      "Ġsl": 2052,
      "isc": 2053,
      "Ġtools": 2054,
      "duct": 2055,
      "angle": 2056,
      "Ġveget": 2057,
      "Ġindustry": 2058,
      "Comp": 2059,
      "Ġcity": 2060,
      "by": 2061,
      "Ġpa": 2062,
      "izes": 2063,
      "ograph": 2064,
      "Ġtechniques": 2065,
      "Pro": 2066,
      "app": 2067,
      "Ġflow": 2068,
      "Ġwal": 2069,
      "Ġdue": 2070,
      "Ġcome": 2071,
      "Ġbecause": 2072,
      "Ġcountries": 2073,
      "Ġmethods": 2074,
      "Ġchanges": 2075,
      "Ġmar": 2076,
      "Ġmess": 2077,
      "Ġinternet": 2078,
      "ires": 2079,
      "asc": 2080,
      "Ġlim": 2081,
      "Ġjoy": 2082,
      "Ġconvers": 2083,
      "ane": 2084,
      "Ġwond": 2085,
      "Ġmaterial": 2086,
      "Ġbas": 2087,
      "Find": 2088,
      "Ġemail": 2089,
      "Ġagain": 2090,
      "come": 2091,
      "Ġpast": 2092,
      "Ġmyst": 2093,
      "Ġopportunities": 2094,
      "ger": 2095,
      "Ġsomet": 2096,
      "ĠData": 2097,
      "Ġdoes": 2098,
      "Ġplanet": 2099,
      "ele": 2100,
      "mosp": 2101,
      "Ġest": 2102,
      "Ġnut": 2103,
      "Ġemphas": 2104,
      "Ġcalculate": 2105,
      "Ġwhy": 2106,
      "Ġtypically": 2107,
      "Overall": 2108,
      "Ġsame": 2109,
      "Ġcell": 2110,
      "Ġfall": 2111,
      "Ġwaste": 2112,
      "Ġless": 2113,
      "ĠAlex": 2114,
      "Ġengine": 2115,
      "Ġyears": 2116,
      "ditions": 2117,
      "Remember": 2118,
      "istics": 2119,
      "Ġdetails": 2120,
      "Ġtopic": 2121,
      "Ġrepresent": 2122,
      "Ġsing": 2123,
      "ently": 2124,
      "ĠCl": 2125,
      "astic": 2126,
      "Ġatmosp": 2127,
      "Ġmedical": 2128,
      "ĠðŁ¤Ķ": 2129,
      "Ġpollution": 2130,
      "to": 2131,
      "Ġocc": 2132,
      "ason": 2133,
      "ĠSh": 2134,
      "ĠCol": 2135,
      "Ġoutput": 2136,
      "Ġdevices": 2137,
      "Ġprevent": 2138,
      "wor": 2139,
      "ðŁİ": 2140,
      "etic": 2141,
      "Ġnavig": 2142,
      "redients": 2143,
      "Ġdifferences": 2144,
      "Ġsumm": 2145,
      "Ġbeauty": 2146,
      "Ġpossible": 2147,
      "ah": 2148,
      "Ġbir": 2149,
      "istic": 2150,
      "Ġexpression": 2151,
      "Ġbelie": 2152,
      "St": 2153,
      "Ġcup": 2154,
      "ĠWhen": 2155,
      "aving": 2156,
      "Ġminim": 2157,
      "ĠQ": 2158,
      "Ġ\\": 2159,
      "Ġtable": 2160,
      "inary": 2161,
      "Ġharm": 2162,
      "Ġvirtual": 2163,
      "Ġfeedback": 2164,
      "ĠJohn": 2165,
      "Ġeveryone": 2166,
      "Ġcontinu": 2167,
      "Ġstreng": 2168,
      "Ġyoung": 2169,
      "Ġuses": 2170,
      "Ġuntil": 2171,
      "Ġphot": 2172,
      "br": 2173,
      "tal": 2174,
      "Ġhy": 2175,
      "Ġkind": 2176,
      "Ġemissions": 2177,
      "Ġexamples": 2178,
      "Ġmultiple": 2179,
      "Ġtarget": 2180,
      "Ġstress": 2181,
      "Ġled": 2182,
      "Ġquick": 2183,
      "obile": 2184,
      "Ġplatforms": 2185,
      "Ġtreat": 2186,
      "Ġmove": 2187,
      "ðŁĳ": 2188,
      "olve": 2189,
      "Ġsuper": 2190,
      "ĠOn": 2191,
      "ĠFor": 2192,
      "ĠUs": 2193,
      "Ġpoem": 2194,
      "Ġensuring": 2195,
      "other": 2196,
      "Ġsho": 2197,
      "Ġmusic": 2198,
      "Ġcollect": 2199,
      "Ġdifference": 2200,
      "Ġinsights": 2201,
      "Ġsuccessful": 2202,
      "Ġrelevant": 2203,
      "de": 2204,
      "me": 2205,
      "ping": 2206,
      "Ġhig": 2207,
      "resh": 2208,
      "Ġpriv": 2209,
      "ditional": 2210,
      "Ġeffects": 2211,
      "Ġbring": 2212,
      "Ġincrease": 2213,
      "Ġbreak": 2214,
      "Ġtowards": 2215,
      "oint": 2216,
      "ush": 2217,
      "ĠSc": 2218,
      "Ġareas": 2219,
      "Ġphrase": 2220,
      "Ġlocal": 2221,
      "Ġpractices": 2222,
      "Ġachieve": 2223,
      "word": 2224,
      "Ġliving": 2225,
      "Ġ12": 2226,
      "Ġsituation": 2227,
      "How": 2228,
      "Ġlif": 2229,
      "Ġthose": 2230,
      "Ġgenerate": 2231,
      "Ġworks": 2232,
      "Ġrecip": 2233,
      "alu": 2234,
      "Ġdi": 2235,
      "Ġlives": 2236,
      "Ġcontrol": 2237,
      "Ġstring": 2238,
      "cript": 2239,
      "Ġterms": 2240,
      "vide": 2241,
      "olutely": 2242,
      "Ġguid": 2243,
      "Ġatmosphere": 2244,
      "overy": 2245,
      "ton": 2246,
      "Ġold": 2247,
      "ively": 2248,
      "Ġincreased": 2249,
      "Ġelectric": 2250,
      "time": 2251,
      "erns": 2252,
      "Ġcamp": 2253,
      "aly": 2254,
      "Ġthr": 2255,
      "ĠGo": 2256,
      "Ġadvance": 2257,
      "Ġidea": 2258,
      "ecessary": 2259,
      "ole": 2260,
      "ĠðŁ¦": 2261,
      "idence": 2262,
      "ĠSu": 2263,
      "Ġmaj": 2264,
      "Ġtransform": 2265,
      "Ġpolic": 2266,
      "Ġminut": 2267,
      "ĠOverall": 2268,
      "Ġadvant": 2269,
      "Ġhappy": 2270,
      "iful": 2271,
      "Ġmax": 2272,
      "Ġupd": 2273,
      "Ġsociety": 2274,
      "based": 2275,
      "ead": 2276,
      "Ġinit": 2277,
      "oose": 2278,
      "Ġprogress": 2279,
      "Ġtask": 2280,
      "Ġcharacters": 2281,
      "Ġrisk": 2282,
      "rans": 2283,
      "Ġheat": 2284,
      "Ġworking": 2285,
      "Ġ15": 2286,
      "ĠOr": 2287,
      "Ġsentences": 2288,
      "Ġissue": 2289,
      "Ġrenewable": 2290,
      "ging": 2291,
      "icles": 2292,
      "Ġdream": 2293,
      "agraph": 2294,
      "ooks": 2295,
      "Ġscen": 2296,
      "Ġcreative": 2297,
      "ĠCont": 2298,
      "Ġsens": 2299,
      "ĠðŁĮ±": 2300,
      "Ġknowledge": 2301,
      "Ġpreferences": 2302,
      "Ġengaging": 2303,
      "Ġreview": 2304,
      "ven": 2305,
      "Ġfru": 2306,
      "Ġfield": 2307,
      ",\"": 2308,
      "arr": 2309,
      "Ġchild": 2310,
      "ves": 2311,
      "lection": 2312,
      "Ġdid": 2313,
      "ĠðŁ¥": 2314,
      "ĠðŁĶ": 2315,
      "Ġmeans": 2316,
      "Ġdise": 2317,
      "Ġsquare": 2318,
      "pare": 2319,
      "Ġtal": 2320,
      "Ġafter": 2321,
      "Ġhead": 2322,
      "Ġrout": 2323,
      "Ġprocessing": 2324,
      "Ġembra": 2325,
      "Ġsymb": 2326,
      "inal": 2327,
      "ilar": 2328,
      "sequ": 2329,
      "Ġexce": 2330,
      "ria": 2331,
      "Ġspir": 2332,
      "Ġsomeone": 2333,
      "itle": 2334,
      "ising": 2335,
      "Ġtotal": 2336,
      "Ġmust": 2337,
      "Ġresults": 2338,
      "Ġveh": 2339,
      "Ġmor": 2340,
      "ustomer": 2341,
      "Ġpriorit": 2342,
      "</": 2343,
      "fect": 2344,
      "Ġtrue": 2345,
      "Ġoil": 2346,
      "aces": 2347,
      "ancing": 2348,
      "Ġsmart": 2349,
      "000": 2350,
      "Ġprogramming": 2351,
      "Ġnegative": 2352,
      "Ġfost": 2353,
      "Ġhard": 2354,
      "Ġlength": 2355,
      "Ġvibr": 2356,
      "Ġfilled": 2357,
      "Ġprofessional": 2358,
      "Ġsummary": 2359,
      "ugh": 2360,
      "ones": 2361,
      "aling": 2362,
      "Ġcomfort": 2363,
      "aster": 2364,
      "ĠðŁĵĬ": 2365,
      "riendly": 2366,
      "Ġpatient": 2367,
      "Ġtrees": 2368,
      "gest": 2369,
      "kes": 2370,
      "Ġtoo": 2371,
      "Ġnon": 2372,
      "ĠRes": 2373,
      "ology": 2374,
      "Ġmovie": 2375,
      "rehe": 2376,
      "Ġdog": 2377,
      "ety": 2378,
      "Ġcompon": 2379,
      "ello": 2380,
      "Ġproductivity": 2381,
      "ĠStates": 2382,
      "Ġexplain": 2383,
      "Ġpowerful": 2384,
      "Ġlaw": 2385,
      "Ġbeautiful": 2386,
      "orks": 2387,
      "Ġexerc": 2388,
      "Ġweather": 2389,
      "Ġtraditional": 2390,
      "Ġsecure": 2391,
      "ynt": 2392,
      "Ġhour": 2393,
      "Ġlast": 2394,
      "urs": 2395,
      "ĠAbs": 2396,
      "Ġcompet": 2397,
      "Ġfeeling": 2398,
      "Class": 2399,
      "itation": 2400,
      "Ġpost": 2401,
      "Ġchat": 2402,
      "Ġdiff": 2403,
      "Ġvibrant": 2404,
      "Ad": 2405,
      "iod": 2406,
      "Ġcm": 2407,
      "unch": 2408,
      "pped": 2409,
      "Ġspecies": 2410,
      "Ġside": 2411,
      "Ġear": 2412,
      "ĠTe": 2413,
      "pper": 2414,
      "plement": 2415,
      "hesis": 2416,
      "Ġinnovation": 2417,
      "Ġbalance": 2418,
      "Ġdirect": 2419,
      "ura": 2420,
      "Ġtoday": 2421,
      "Ġmoney": 2422,
      "Ġparagraph": 2423,
      "Sum": 2424,
      "Ġperspect": 2425,
      "Ġbecome": 2426,
      "Ġpurch": 2427,
      "Ġsomething": 2428,
      "oot": 2429,
      "ðŁĲ": 2430,
      "verage": 2431,
      "Ġsupp": 2432,
      "ervation": 2433,
      "Ġsmo": 2434,
      "Ġrain": 2435,
      "Ġconcerns": 2436,
      "lusion": 2437,
      "ium": 2438,
      "Ġpay": 2439,
      "ision": 2440,
      "Ġhab": 2441,
      "ĊĠĠĠĠ": 2442,
      "inating": 2443,
      "Ġsleep": 2444,
      "itable": 2445,
      "Ġey": 2446,
      "osystem": 2447,
      "Ġbrand": 2448,
      "Su": 2449,
      "Ġmobile": 2450,
      "Ġgam": 2451,
      "emic": 2452,
      "Ġresil": 2453,
      "Ġrespect": 2454,
      "Ġgovernment": 2455,
      "ĠAbsolutely": 2456,
      "sw": 2457,
      "Ġbeg": 2458,
      "Ġanything": 2459,
      "))": 2460,
      "Ġing": 2461,
      "Ġtips": 2462,
      "ĠName": 2463,
      "Ġpeace": 2464,
      "iance": 2465,
      "Ġscho": 2466,
      "ished": 2467,
      "rams": 2468,
      "ival": 2469,
      "Ġsubject": 2470,
      "izations": 2471,
      "Ġlandsc": 2472,
      "Ġpaper": 2473,
      "Ġstrength": 2474,
      "Ġminutes": 2475,
      "Ġob": 2476,
      "ðŁı": 2477,
      "Ġaspect": 2478,
      "ĠInc": 2479,
      "Ġpurpose": 2480,
      "ug": 2481,
      "Ġsort": 2482,
      "Ġsolution": 2483,
      "Ġcir": 2484,
      "Ġanc": 2485,
      "Ġant": 2486,
      "ĠHel": 2487,
      "epend": 2488,
      "ĠNew": 2489,
      "con": 2490,
      "iring": 2491,
      "Ġ18": 2492,
      "Ġtraffic": 2493,
      "ynam": 2494,
      "Classify": 2495,
      "making": 2496,
      "pos": 2497,
      "atives": 2498,
      "Ġcategor": 2499,
      "Ġconditions": 2500,
      "Ġvol": 2501,
      "Ġyourself": 2502,
      "Ġplant": 2503,
      "ĠOh": 2504,
      "Ġaddition": 2505,
      "Ġtechnologies": 2506,
      "Ġvillage": 2507,
      "uce": 2508,
      "ĠComp": 2509,
      "oes": 2510,
      "Ġspecial": 2511,
      "It": 2512,
      "inking": 2513,
      "struct": 2514,
      "ift": 2515,
      "uch": 2516,
      "Ġplants": 2517,
      "ĠDes": 2518,
      "Ġreflect": 2519,
      "cription": 2520,
      "Ġmotiv": 2521,
      "ĠAmerican": 2522,
      "Ġcrit": 2523,
      "Ġdiet": 2524,
      "ially": 2525,
      "Ġchoice": 2526,
      "Ġmodern": 2527,
      "Ġoptions": 2528,
      "ised": 2529,
      "Ġleft": 2530,
      "Ġavail": 2531,
      "Ch": 2532,
      "List": 2533,
      "friendly": 2534,
      "ince": 2535,
      "Ġdoc": 2536,
      "ĠAm": 2537,
      "ĠAnd": 2538,
      "Ġcontext": 2539,
      "Ġdatab": 2540,
      "iled": 2541,
      "Ġconsist": 2542,
      "Ġperfect": 2543,
      "ĠðŁĵĿ": 2544,
      "Ġprim": 2545,
      "eech": 2546,
      "ĠRev": 2547,
      "Ġerr": 2548,
      "Ġargument": 2549,
      "Ġdest": 2550,
      "Ġlower": 2551,
      "Ġvers": 2552,
      "ĠPr": 2553,
      "Ġincludes": 2554,
      "ius": 2555,
      "just": 2556,
      "med": 2557,
      "Ġterm": 2558,
      "Ġprice": 2559,
      "Ġsignificantly": 2560,
      "atch": 2561,
      "acks": 2562,
      "ression": 2563,
      "marize": 2564,
      "ament": 2565,
      "Ġ}": 2566,
      "Ġfresh": 2567,
      "ises": 2568,
      "Ġmel": 2569,
      "Ġbreat": 2570,
      "lying": 2571,
      "Ġjo": 2572,
      "Ġcommit": 2573,
      "Ġdetect": 2574,
      "Ġsecond": 2575,
      "Ġimages": 2576,
      "Ġfund": 2577,
      "Ġadventure": 2578,
      "Ġmoment": 2579,
      "'ve": 2580,
      "ht": 2581,
      "land": 2582,
      "Ġtur": 2583,
      "Ġtaking": 2584,
      "ablish": 2585,
      "aches": 2586,
      "ually": 2587,
      "Ġfollow": 2588,
      "Ġecosystem": 2589,
      "Ġsafety": 2590,
      "ator": 2591,
      "ese": 2592,
      "entle": 2593,
      "Ġgas": 2594,
      "ĠComm": 2595,
      "Ġspread": 2596,
      "ĠReg": 2597,
      "Ġmanage": 2598,
      "Ġelement": 2599,
      "Ġsimpl": 2600,
      "Ġagainst": 2601,
      "dr": 2602,
      "pri": 2603,
      "eries": 2604,
      "Ġmiss": 2605,
      "ership": 2606,
      "ĠAria": 2607,
      "Ġconve": 2608,
      "ĠMan": 2609,
      "ffee": 2610,
      "uck": 2611,
      "Ġaccur": 2612,
      "Ġcharacteristics": 2613,
      "ID": 2614,
      "Ġtree": 2615,
      "Ġcertain": 2616,
      "orpor": 2617,
      "oul": 2618,
      "Ġlived": 2619,
      "ĠðŁĳ": 2620,
      "Ġnecessary": 2621,
      "ored": 2622,
      "ĠBe": 2623,
      "ĠLear": 2624,
      "Ġprovided": 2625,
      "house": 2626,
      "Ġcase": 2627,
      "Ġded": 2628,
      "Ġrece": 2629,
      "ĠRec": 2630,
      "Ġemerg": 2631,
      "ava": 2632,
      "Ġsentiment": 2633,
      "text": 2634,
      "\",": 2635,
      "ees": 2636,
      "Ġface": 2637,
      "Ġthings": 2638,
      "ager": 2639,
      "Ġnext": 2640,
      "ruction": 2641,
      "Ġpath": 2642,
      "Ġattention": 2643,
      "bo": 2644,
      "ring": 2645,
      "erve": 2646,
      "Ġtown": 2647,
      "ows": 2648,
      "ĠCan": 2649,
      "Ġcho": 2650,
      "Ġcompan": 2651,
      "Ġshap": 2652,
      "Ġnews": 2653,
      "Ġbright": 2654,
      "ĠImplement": 2655,
      "Ġavoid": 2656,
      "Ġspeed": 2657,
      ":**": 2658,
      "Ġdynam": 2659,
      "Ġloss": 2660,
      "Ġgram": 2661,
      "Ġansw": 2662,
      "Ġconsid": 2663,
      "Ġregul": 2664,
      "Ġtriangle": 2665,
      "aur": 2666,
      "ek": 2667,
      "Ġsor": 2668,
      "uly": 2669,
      "Ġalong": 2670,
      "Ġspeech": 2671,
      "Ġdatas": 2672,
      "lications": 2673,
      "Ġblue": 2674,
      "Ġpolit": 2675,
      "Ġut": 2676,
      "Ġult": 2677,
      "Ġsides": 2678,
      "Ġgentle": 2679,
      "Ġview": 2680,
      "ĠCreate": 2681,
      "illing": 2682,
      "Ġappropri": 2683,
      "Ġtrends": 2684,
      "wa": 2685,
      "oun": 2686,
      "Ġbro": 2687,
      "abilities": 2688,
      "Ġquant": 2689,
      "Ġdescrib": 2690,
      "Ġprec": 2691,
      "Ġauthor": 2692,
      "Ġdesigned": 2693,
      "ĠDevelop": 2694,
      "faction": 2695,
      "Ġrecipe": 2696,
      "Ġsymbol": 2697,
      "Ġancient": 2698,
      "isp": 2699,
      "Ġban": 2700,
      "icult": 2701,
      "Ġthink": 2702,
      "ĠTra": 2703,
      "Ġforce": 2704,
      "Ġcomple": 2705,
      "Ġcomprehe": 2706,
      "Ġunivers": 2707,
      "Ġnumer": 2708,
      "Ġintegr": 2709,
      "Ġcirc": 2710,
      "aign": 2711,
      "cent": 2712,
      "gen": 2713,
      "Ġflex": 2714,
      "quality": 2715,
      "oci": 2716,
      "ĠAdd": 2717,
      "Ġcalled": 2718,
      "Ġextra": 2719,
      "Ġmeasures": 2720,
      "Ġfull": 2721,
      "Ġesp": 2722,
      "Ġbig": 2723,
      "Ġorig": 2724,
      "ends": 2725,
      "ĠFr": 2726,
      "Ġamong": 2727,
      "Ġpromote": 2728,
      "Ġencount": 2729,
      "Ġbuilding": 2730,
      "Ġrequirements": 2731,
      "Ġtemperature": 2732,
      "ges": 2733,
      "Ġunc": 2734,
      "ĠGP": 2735,
      "Ġproduction": 2736,
      "Ġactivity": 2737,
      "Ġimproved": 2738,
      "Ġcountry": 2739,
      "Ġtimes": 2740,
      "pingAI": 2741,
      "omes": 2742,
      "Ġgar": 2743,
      "Ġground": 2744,
      "chant": 2745,
      "Ġstream": 2746,
      "ume": 2747,
      "Ġdeg": 2748,
      "Ġdescribe": 2749,
      "()": 2750,
      "Now": 2751,
      "itut": 2752,
      "itude": 2753,
      "Ġegg": 2754,
      "Ġvide": 2755,
      "rial": 2756,
      "Ġtrust": 2757,
      "Ġefforts": 2758,
      "Ġdemand": 2759,
      "Ġsales": 2760,
      "Ġscientific": 2761,
      "Ġvehicles": 2762,
      "Ġdifficult": 2763,
      "Ġz": 2764,
      "Ġfig": 2765,
      "lease": 2766,
      "ĠPh": 2767,
      "ĠðŁĮĮ": 2768,
      "Ġ100": 2769,
      "Ġcommunities": 2770,
      "print": 2771,
      "Ġsingle": 2772,
      "python": 2773,
      "Ġport": 2774,
      "Ġbud": 2775,
      "ðŁļ": 2776,
      "ots": 2777,
      "ĠðŁĮĬ": 2778,
      "Ġshopping": 2779,
      "Ġred": 2780,
      "Ġnever": 2781,
      "Ġtrack": 2782,
      "aily": 2783,
      "Ġbecame": 2784,
      "Ġchallenging": 2785,
      "ĠEnc": 2786,
      "Ġmonit": 2787,
      "Ġverb": 2788,
      "Ġcomponents": 2789,
      "Suggest": 2790,
      "11": 2791,
      "Ġsource": 2792,
      "ening": 2793,
      "Ġwild": 2794,
      "lear": 2795,
      "Ġable": 2796,
      "ĠThat": 2797,
      "Ġquery": 2798,
      "Ġvariety": 2799,
      "Ġdrive": 2800,
      "ĠArt": 2801,
      "Ġsimilar": 2802,
      "19": 2803,
      "het": 2804,
      "head": 2805,
      "Ġsure": 2806,
      "Ġsize": 2807,
      "Ġbrow": 2808,
      "Ġexist": 2809,
      "Ġassoci": 2810,
      "Ġrequires": 2811,
      "Ġinnovative": 2812,
      "Ġrecognition": 2813,
      "Ġprivacy": 2814,
      "Give": 2815,
      "Ġbat": 2816,
      "aries": 2817,
      "oms": 2818,
      "Ġlik": 2819,
      "ĠSoc": 2820,
      "Ġneural": 2821,
      "Ġabs": 2822,
      "term": 2823,
      "Ġcolors": 2824,
      "Ġstudy": 2825,
      "Ġindustries": 2826,
      "Ġmaintaining": 2827,
      "Ġmaterials": 2828,
      "Ġadvantages": 2829,
      "ĠLearning": 2830,
      "¡ï¸ı": 2831,
      "Ġaffect": 2832,
      "umb": 2833,
      "ĠWor": 2834,
      "Ġcontain": 2835,
      "Ġadvanced": 2836,
      "Ġdays": 2837,
      "Ġstudent": 2838,
      "Ġwriting": 2839,
      "Ġchatbot": 2840,
      "ters": 2841,
      "rea": 2842,
      "Ġcall": 2843,
      "Ġconsequ": 2844,
      "fully": 2845,
      "Ġperiod": 2846,
      "Ġimproving": 2847,
      "Ġpassion": 2848,
      "Ġfriendly": 2849,
      "Ġincreasing": 2850,
      "Ġanimal": 2851,
      "Ġsweet": 2852,
      "Provide": 2853,
      "Ġingredients": 2854,
      "zz": 2855,
      "Ġfasc": 2856,
      "alty": 2857,
      "ĠHealth": 2858,
      "wareness": 2859,
      "Ġnovel": 2860,
      "Ġeasy": 2861,
      "Ġmajor": 2862,
      "Ġappropriate": 2863,
      "An": 2864,
      "vers": 2865,
      "ĠâĢ": 2866,
      "ĠSe": 2867,
      "Ġintrodu": 2868,
      "ĠPerson": 2869,
      "ĠLily": 2870,
      "Ġrad": 2871,
      "comes": 2872,
      "Ġspirit": 2873,
      "ĠX": 2874,
      "Ġsn": 2875,
      "Ġfour": 2876,
      "Ġmit": 2877,
      "Ġmoon": 2878,
      "idden": 2879,
      "Ġstra": 2880,
      "ĠFin": 2881,
      "Ġincred": 2882,
      "Ġdisplay": 2883,
      "Ġorganization": 2884,
      "For": 2885,
      "Ġtail": 2886,
      "Ġinterv": 2887,
      "Ġscience": 2888,
      "ĠJava": 2889,
      "Ġsave": 2890,
      "Ġwonder": 2891,
      "12": 2892,
      "oor": 2893,
      "su": 2894,
      "rel": 2895,
      "itness": 2896,
      "Ġdaily": 2897,
      "Ġlook": 2898,
      "ĠSet": 2899,
      "Ġvoice": 2900,
      "Ġhistor": 2901,
      "iox": 2902,
      "Ġhours": 2903,
      "\":": 2904,
      "Ġaim": 2905,
      "Ġlive": 2906,
      "Ġoffering": 2907,
      "Ġdeliv": 2908,
      "Ġassistant": 2909,
      "Ġproblems": 2910,
      "Ġpopulation": 2911,
      "Ġdetermination": 2912,
      "rastructure": 2913,
      "Ġpromoting": 2914,
      "side": 2915,
      "the": 2916,
      "Ġlo": 2917,
      "Ġgre": 2918,
      "owered": 2919,
      "Ġstat": 2920,
      "ĠCom": 2921,
      "Ġaltern": 2922,
      "Ġthought": 2923,
      "Ġcomprehens": 2924,
      "By": 2925,
      "erce": 2926,
      "orage": 2927,
      "Ġste": 2928,
      "vering": 2929,
      "Ġhaving": 2930,
      "ĠGood": 2931,
      "Ġcomputing": 2932,
      "Ġparticip": 2933,
      "Ġrelationships": 2934,
      "Ġvegetables": 2935,
      "Ġembrace": 2936,
      "dom": 2937,
      "pe": 2938,
      "ogle": 2939,
      "ibilities": 2940,
      "Ġoutcomes": 2941,
      "overed": 2942,
      "Ġcoffee": 2943,
      "Ġvisit": 2944,
      "Ġinteractive": 2945,
      "Ġemployees": 2946,
      "Ġsatisfaction": 2947,
      "Ġmaxim": 2948,
      "fer": 2949,
      "reci": 2950,
      "ecially": 2951,
      "Ġmakes": 2952,
      "Ġequal": 2953,
      "Ġprojects": 2954,
      "Ġhigher": 2955,
      "Ġespecially": 2956,
      "lar": 2957,
      "Ġmass": 2958,
      "Ġmount": 2959,
      "Ġreally": 2960,
      "ĠSm": 2961,
      "Ġmagical": 2962,
      "Ġrecommendations": 2963,
      "Ġresilience": 2964,
      "Ġassociated": 2965,
      "Wh": 2966,
      "orn": 2967,
      "Ġthreat": 2968,
      "ĠHello": 2969,
      "ĠMach": 2970,
      "Ġcontrast": 2971,
      "earch": 2972,
      "Ġprioritize": 2973,
      "ps": 2974,
      "onstr": 2975,
      "Ġdiv": 2976,
      "Ġhidden": 2977,
      "ĠBl": 2978,
      "Ġplastic": 2979,
      "ender": 2980,
      "ĠðŁĵĪ": 2981,
      "Ġfruits": 2982,
      "Ġchildren": 2983,
      "zing": 2984,
      "Ġtakes": 2985,
      "ĠðŁķ": 2986,
      "Ġimplications": 2987,
      "ĠUS": 2988,
      "Ġactions": 2989,
      "Ġcomputers": 2990,
      "Ġapplication": 2991,
      "ĠGoogle": 2992,
      "ny": 2993,
      "Ġur": 2994,
      "Ġtou": 2995,
      "Ġpack": 2996,
      "Ġgard": 2997,
      "Ġsuitable": 2998,
      "ĠMarket": 2999,
      "iece": 3000,
      "iveness": 3001,
      "Ġtheme": 3002,
      "Ġgenerations": 3003,
      "Ġcampaign": 3004,
      "work": 3005,
      "Ġill": 3006,
      "onse": 3007,
      "Ġbur": 3008,
      "oming": 3009,
      "Ġappreci": 3010,
      "othing": 3011,
      "ĠKe": 3012,
      "Ġcheck": 3013,
      "Ġparticular": 3014,
      "Ġconsequences": 3015,
      "And": 3016,
      "not": 3017,
      "ina": 3018,
      "alse": 3019,
      "Ġmuch": 3020,
      "Ġhouse": 3021,
      "utput": 3022,
      "ĠSec": 3023,
      "Ġsequ": 3024,
      "Ġhumans": 3025,
      "Ġsetting": 3026,
      "Ġorganizations": 3027,
      "Ġstrategy": 3028,
      "Ġrestaur": 3029,
      "Ġmeasure": 3030,
      "Ġsong": 3031,
      "cean": 3032,
      "Ġgain": 3033,
      "ĠCustomer": 3034,
      "Ġadjust": 3035,
      "Ġrelax": 3036,
      "Ġessay": 3037,
      "Ġconflic": 3038,
      "ycle": 3039,
      "Ġsmooth": 3040,
      "ĠHelpingAI": 3041,
      "Ġbudget": 3042,
      "tics": 3043,
      "und": 3044,
      "Ġaway": 3045,
      "asons": 3046,
      "Ġusage": 3047,
      "Ġrise": 3048,
      "Ġpepper": 3049,
      "Ġfriendship": 3050,
      "Summarize": 3051,
      "ĠGPT": 3052,
      "Ġmis": 3053,
      "Ġmix": 3054,
      "Ġgive": 3055,
      "Ġstru": 3056,
      "actions": 3057,
      "ĠEach": 3058,
      "ĠInst": 3059,
      "Ġvalid": 3060,
      "Ġdelight": 3061,
      "athy": 3062,
      "Ġlittle": 3063,
      "Ġcollaboration": 3064,
      "ĠQu": 3065,
      "Ġadvancements": 3066,
      "eration": 3067,
      "Ġcele": 3068,
      "isms": 3069,
      "Ġmight": 3070,
      "ĠAb": 3071,
      "Ġexpens": 3072,
      "Ġplays": 3073,
      "iction": 3074,
      "Ġdemonstr": 3075,
      "Ġgreenhouse": 3076,
      "Ġsorry": 3077,
      "],": 3078,
      "atures": 3079,
      "Ġfel": 3080,
      "Ġball": 3081,
      "Ġ11": 3082,
      "ĠBoth": 3083,
      "Ġinformed": 3084,
      "Ġblog": 3085,
      "Ġopportunity": 3086,
      "Ġoperations": 3087,
      "ĠApple": 3088,
      "We": 3089,
      "imal": 3090,
      "Ġrich": 3091,
      "ĠFe": 3092,
      "Ġneeded": 3093,
      "Ġfeature": 3094,
      "Ġconclusion": 3095,
      "Ġconnection": 3096,
      "Ġculture": 3097,
      "Ġtimel": 3098,
      "Ġfields": 3099,
      "Ġaspects": 3100,
      "inst": 3101,
      "Ġsyn": 3102,
      "Ġlow": 3103,
      "ules": 3104,
      "aching": 3105,
      "Ġdescription": 3106,
      "Ġcreativity": 3107,
      "ypot": 3108,
      "Ġgoal": 3109,
      "Ġmitig": 3110,
      "lo": 3111,
      "Â°": 3112,
      "Ġcook": 3113,
      "Ġloy": 3114,
      "Ġnow": 3115,
      "Ġstorm": 3116,
      "Ġtruly": 3117,
      "Ġroad": 3118,
      "Ġattract": 3119,
      "Ġconven": 3120,
      "Ġcultural": 3121,
      "Ġinfluenc": 3122,
      "To": 3123,
      "You": 3124,
      "more": 3125,
      "Ġtax": 3126,
      "Ġsav": 3127,
      "enge": 3128,
      "Ġcy": 3129,
      "ðŁ¥": 3130,
      "rupt": 3131,
      "Ġindic": 3132,
      "Ġindepend": 3133,
      "arked": 3134,
      "Ġexpect": 3135,
      "ĠðŁİī": 3136,
      "Ġengagement": 3137,
      "Ġrefers": 3138,
      "Ġlifest": 3139,
      "bit": 3140,
      "Ġobs": 3141,
      "Ġfar": 3142,
      "Ġstars": 3143,
      "umber": 3144,
      "ĠMod": 3145,
      "Ġproduce": 3146,
      "Ġemotions": 3147,
      "Ġquickly": 3148,
      "Ġdiseases": 3149,
      "=\"": 3150,
      "ailed": 3151,
      "def": 3152,
      "life": 3153,
      "val": 3154,
      "inct": 3155,
      "Ġfire": 3156,
      "Ġbase": 3157,
      "Ġdiscovery": 3158,
      "Ġimag": 3159,
      "Ġpassage": 3160,
      "Ġsurv": 3161,
      "Ġaddressing": 3162,
      "Ġcosts": 3163,
      "Ġnetworks": 3164,
      "fficient": 3165,
      "Ġmessage": 3166,
      "ĠCommun": 3167,
      "Ġpolitical": 3168,
      "Ġcourage": 3169,
      "ither": 3170,
      "Ġlooking": 3171,
      "agn": 3172,
      "Ġcomes": 3173,
      "osing": 3174,
      "Ġinterpre": 3175,
      "ĠStart": 3176,
      "Ġcause": 3177,
      "ĠðŁİ¨": 3178,
      "Ġremind": 3179,
      "Ġsolar": 3180,
      "Ġmembers": 3181,
      "Ġsubst": 3182,
      "With": 3183,
      "ground": 3184,
      "we": 3185,
      "Ġturn": 3186,
      "Ġpress": 3187,
      "oman": 3188,
      "Ġthinking": 3189,
      "ury": 3190,
      "ĠHT": 3191,
      "ops": 3192,
      "ĠMed": 3193,
      "Ġsea": 3194,
      "Ġcloud": 3195,
      "There": 3196,
      "Ġadvice": 3197,
      "ricult": 3198,
      "Ġinfrastructure": 3199,
      "urthermore": 3200,
      "ciples": 3201,
      "ĠWorld": 3202,
      "ioxide": 3203,
      "Re": 3204,
      "par": 3205,
      "rig": 3206,
      "Ġcre": 3207,
      "icial": 3208,
      "ĠTrans": 3209,
      "Ġrate": 3210,
      "Ġblock": 3211,
      "Ġresponse": 3212,
      "Ġpresence": 3213,
      "Ġsurround": 3214,
      "Ġinteractions": 3215,
      "Ġmonth": 3216,
      "ĠSupport": 3217,
      "Ġexercise": 3218,
      "ĠTechn": 3219,
      "Ġschool": 3220,
      "Ġlandscape": 3221,
      "Ġultimately": 3222,
      "uild": 3223,
      "Ġsect": 3224,
      "Ġforward": 3225,
      "Ġgold": 3226,
      "otal": 3227,
      "Ġ17": 3228,
      "Ġsharing": 3229,
      "Ġevalu": 3230,
      "ĠðŁļĹ": 3231,
      "Ġdefin": 3232,
      "ĠEnglish": 3233,
      "Ġprinciples": 3234,
      "ĠSocial": 3235,
      "Ġcomprehensive": 3236,
      "ĠMachine": 3237,
      "cking": 3238,
      "gar": 3239,
      "poon": 3240,
      "Ġsand": 3241,
      "ators": 3242,
      "Ġcut": 3243,
      "rad": 3244,
      "Ġanother": 3245,
      "Ġ16": 3246,
      "ĠWar": 3247,
      "ended": 3248,
      "Ġroom": 3249,
      "Ġencourage": 3250,
      "Ġeconomy": 3251,
      "Ġrisks": 3252,
      "ossil": 3253,
      "Ġcomplete": 3254,
      "25": 3255,
      "ule": 3256,
      "Ġfavor": 3257,
      "Ġtool": 3258,
      "Ġdioxide": 3259,
      "ample": 3260,
      "ĠPre": 3261,
      "Ġengage": 3262,
      "Ġletter": 3263,
      "Ġdistribut": 3264,
      "Ġcontinue": 3265,
      "Ġready": 3266,
      "Ġpractice": 3267,
      "He": 3268,
      "Ġbeach": 3269,
      "amm": 3270,
      "abling": 3271,
      "Ġinclus": 3272,
      "Ġsecre": 3273,
      "Ġchem": 3274,
      "rench": 3275,
      "ĠConsider": 3276,
      "Ġadditional": 3277,
      "Ġfascinating": 3278,
      "hold": 3279,
      "Ġrights": 3280,
      "Ġdeb": 3281,
      "Ġshared": 3282,
      "Ġ25": 3283,
      "ological": 3284,
      "ording": 3285,
      "Ġgeneral": 3286,
      "Ġlifestyle": 3287,
      "One": 3288,
      "inter": 3289,
      "hel": 3290,
      "Ġwood": 3291,
      "Ġhol": 3292,
      "Ġstorage": 3293,
      "ung": 3294,
      "Ġenabling": 3295,
      "Ġvac": 3296,
      "oph": 3297,
      "ĠPres": 3298,
      "duc": 3299,
      "Ġwhether": 3300,
      "Ġgoing": 3301,
      "Ġsurface": 3302,
      "Ġwarming": 3303,
      "Ġcaptiv": 3304,
      "Ġbasic": 3305,
      "Ġbegin": 3306,
      "Ġanswer": 3307,
      "Ġcred": 3308,
      "agers": 3309,
      "asting": 3310,
      "ĠRed": 3311,
      "Ġmetap": 3312,
      "Ġcheese": 3313,
      "ðŁĩ¸": 3314,
      "Ġobjects": 3315,
      "Ġfuels": 3316,
      "Ġsafe": 3317,
      "Ġoptimize": 3318,
      "Ġemotional": 3319,
      "Ġmeeting": 3320,
      "Ġliter": 3321,
      "Ġperspectives": 3322,
      "Ġstrugg": 3323,
      "On": 3324,
      "ox": 3325,
      "Ġice": 3326,
      "Ġcream": 3327,
      "Ġbooks": 3328,
      "illed": 3329,
      "Ġprote": 3330,
      "ĠSome": 3331,
      "Ġvast": 3332,
      "ĠDisc": 3333,
      "itement": 3334,
      "Ġvari": 3335,
      "Ġfinding": 3336,
      "Ġrap": 3337,
      "Ġinstruct": 3338,
      "Ġbehind": 3339,
      "Ġresponsible": 3340,
      "Ġspeak": 3341,
      "--------": 3342,
      "ĠRegular": 3343,
      "Ġcard": 3344,
      "alcul": 3345,
      "ĠðŁĹ": 3346,
      "chan": 3347,
      "unning": 3348,
      "Ġenchant": 3349,
      "ĠCar": 3350,
      "ĠWater": 3351,
      "Ġcool": 3352,
      "Ġprograms": 3353,
      "forest": 3354,
      "Ġprofound": 3355,
      "Ġcontinuous": 3356,
      "Ġutil": 3357,
      "Ġtaste": 3358,
      "Ġsay": 3359,
      "Ġconvert": 3360,
      "Ġleaves": 3361,
      "ĠMon": 3362,
      "Ġhelpful": 3363,
      "nown": 3364,
      "iversity": 3365,
      "Ġexcitement": 3366,
      "Ġsounds": 3367,
      "Ġimplementing": 3368,
      "Ġestablish": 3369,
      "Ġdocument": 3370,
      "Ġdatabase": 3371,
      "Your": 3372,
      "vest": 3373,
      "Ġaverage": 3374,
      "Ġfossil": 3375,
      "isk": 3376,
      "urt": 3377,
      "ðŁĮŁ": 3378,
      "Ġentertain": 3379,
      "Ġexciting": 3380,
      "Ġshowc": 3381,
      "Ġpredictions": 3382,
      "Ġnavigate": 3383,
      "Ġdreams": 3384,
      "Ġsupply": 3385,
      "Ġeyes": 3386,
      "yond": 3387,
      "Ġpage": 3388,
      "Ġbar": 3389,
      "Ġdom": 3390,
      "imes": 3391,
      "Ġonce": 3392,
      "acter": 3393,
      "Ġadject": 3394,
      "ĠLe": 3395,
      "Ġappe": 3396,
      "Ġremain": 3397,
      "Ġgreater": 3398,
      "Ġcontinues": 3399,
      "ĠPlan": 3400,
      "Ġrepresents": 3401,
      "wavering": 3402,
      "Ġtouch": 3403,
      "Ġcelebr": 3404,
      ")(": 3405,
      "15": 3406,
      "QL": 3407,
      "bra": 3408,
      "oration": 3409,
      "edom": 3410,
      "Ġhot": 3411,
      "acher": 3412,
      "oses": 3413,
      "ĠDr": 3414,
      "ĠRob": 3415,
      "Ġunwavering": 3416,
      "Ġadding": 3417,
      "Ġchallenge": 3418,
      "Ġhandle": 3419,
      "Ġdetermine": 3420,
      "Ġtreatment": 3421,
      "Ġiniti": 3422,
      "Ġhabit": 3423,
      "ĠDesign": 3424,
      "Ġaccurate": 3425,
      "Ġshaping": 3426,
      "Ġnumerous": 3427,
      "bre": 3428,
      "ches": 3429,
      "set": 3430,
      "ana": 3431,
      "Ġgather": 3432,
      "erse": 3433,
      "Ġevidence": 3434,
      "Ġexpand": 3435,
      "Ġimpacts": 3436,
      "Ġflavor": 3437,
      "Ġwalk": 3438,
      "ding": 3439,
      "lies": 3440,
      "td": 3441,
      "erious": 3442,
      "ites": 3443,
      "Ġfra": 3444,
      "Ġhypot": 3445,
      "Ġluck": 3446,
      "irus": 3447,
      "Ġnear": 3448,
      "ĠMay": 3449,
      "Ġinvolve": 3450,
      "nderstand": 3451,
      "ĠâĪ": 3452,
      "Ġlargest": 3453,
      "Ġdistance": 3454,
      "Ġcapital": 3455,
      "Edit": 3456,
      "view": 3457,
      "Ġge": 3458,
      "amet": 3459,
      "ĠFirst": 3460,
      "Ġappear": 3461,
      "ference": 3462,
      "Ġsche": 3463,
      "Ġcars": 3464,
      "Ġfamous": 3465,
      "Ġopin": 3466,
      "ĠIndia": 3467,
      "Ġecosystems": 3468,
      "eper": 3469,
      "ufact": 3470,
      "xy": 3471,
      "Ġtables": 3472,
      "onic": 3473,
      "ndom": 3474,
      "Ġfarm": 3475,
      "Ġwent": 3476,
      "Ġdance": 3477,
      "asure": 3478,
      "cel": 3479,
      "aged": 3480,
      "Ġplaying": 3481,
      "tenance": 3482,
      "Ġstarted": 3483,
      "Ġguide": 3484,
      "Ġdiversity": 3485,
      "Ġgenetic": 3486,
      "Ġconversation": 3487,
      "Ġmorning": 3488,
      "uracy": 3489,
      "iar": 3490,
      "Ġtitle": 3491,
      "hemat": 3492,
      "Ġhar": 3493,
      "eterm": 3494,
      "ĠðŁĸ": 3495,
      "Ġbegan": 3496,
      "Ġbeyond": 3497,
      "Ġleast": 3498,
      "assion": 3499,
      "Ġcolle": 3500,
      "Ġcreatures": 3501,
      "ðŁĮį": 3502,
      "Ġbackground": 3503,
      "Ġseeking": 3504,
      "Ġeasier": 3505,
      "Ġavailable": 3506,
      "Ġeggs": 3507,
      "sh": 3508,
      "Ġawareness": 3509,
      "ctor": 3510,
      "ctions": 3511,
      "Ġreasons": 3512,
      "Ġlab": 3513,
      "raft": 3514,
      "Ġpros": 3515,
      "ĠAss": 3516,
      "ĠAfter": 3517,
      "ĠOpt": 3518,
      "ĠFrench": 3519,
      "Ġtry": 3520,
      "Ġexperiment": 3521,
      "ĠStay": 3522,
      "Ġsignificance": 3523,
      "Ġlaugh": 3524,
      "Ġdriving": 3525,
      "coming": 3526,
      "Ġinfluence": 3527,
      "Ġrobots": 3528,
      "force": 3529,
      "Ġdataset": 3530,
      "LP": 3531,
      "Ġage": 3532,
      "hent": 3533,
      "Ġbound": 3534,
      "ĠAut": 3535,
      "Ġweek": 3536,
      "ibly": 3537,
      "Ġroot": 3538,
      "Ġassess": 3539,
      "Ġthroughout": 3540,
      "Ġcommunicate": 3541,
      "Ġamaz": 3542,
      "âĢĻ": 3543,
      "Ġreport": 3544,
      "Ġindustrial": 3545,
      "Ġtesting": 3546,
      "ycling": 3547,
      "azon": 3548,
      "Ġpresentation": 3549,
      "Ġempathy": 3550,
      "Ġhistorical": 3551,
      "Ġrestaurant": 3552,
      "Ġchemical": 3553,
      ");": 3554,
      "go": 3555,
      "Ì¦": 3556,
      "Ġeither": 3557,
      "Ġyog": 3558,
      "amless": 3559,
      "Ġenable": 3560,
      "ĠHis": 3561,
      "Ġmeal": 3562,
      "Ġselect": 3563,
      "Ġextre": 3564,
      "Ġdevice": 3565,
      "Ġwidely": 3566,
      "Ġmysterious": 3567,
      "Ġelectricity": 3568,
      "Ġinstructions": 3569,
      "alculate": 3570,
      "aks": 3571,
      "like": 3572,
      "point": 3573,
      "Ġmill": 3574,
      "ivil": 3575,
      "anger": 3576,
      "ĠDef": 3577,
      "Ġsauce": 3578,
      "Ġagricult": 3579,
      "Ġmatter": 3580,
      "Ġdraw": 3581,
      "Ġfundament": 3582,
      "Ġoriginal": 3583,
      "ched": 3584,
      "iel": 3585,
      "po": 3586,
      "solving": 3587,
      "Ġvery": 3588,
      "rie": 3589,
      "opt": 3590,
      "arent": 3591,
      "Ġarch": 3592,
      "Ġimage": 3593,
      "ategory": 3594,
      "Ġencoura": 3595,
      "Ġmemory": 3596,
      "ront": 3597,
      "Ġfrequ": 3598,
      "alyze": 3599,
      "ynthesis": 3600,
      "Ġfigure": 3601,
      "Ì¦Ì¦": 3602,
      "Person": 3603,
      "ball": 3604,
      "ties": 3605,
      "Ġsil": 3606,
      "Ġcand": 3607,
      "Ġwar": 3608,
      "Ġalign": 3609,
      "ĠðŁĮŀ": 3610,
      "Ġcontains": 3611,
      "Ġfear": 3612,
      "formation": 3613,
      "Ġdetailed": 3614,
      "Ġboost": 3615,
      "words": 3616,
      "Ġphotos": 3617,
      "Ġloyalty": 3618,
      "ºðŁĩ¸": 3619,
      "rees": 3620,
      "atural": 3621,
      "iling": 3622,
      "chain": 3623,
      "ids": 3624,
      "ott": 3625,
      "Ġheav": 3626,
      "ĠChe": 3627,
      "Ġcomplet": 3628,
      "ĠGerm": 3629,
      "Ġleads": 3630,
      "Ġfeelings": 3631,
      "Ġaccuracy": 3632,
      "onomous": 3633,
      "Ġemphasizes": 3634,
      "Ġgarden": 3635,
      "ML": 3636,
      "aw": 3637,
      "atory": 3638,
      "rap": 3639,
      "Ġang": 3640,
      "ached": 3641,
      "Ġincome": 3642,
      "Ġvariable": 3643,
      "ĠProduct": 3644,
      "Ġseries": 3645,
      "Ġmeaningful": 3646,
      "Ġflexibility": 3647,
      "Ġdelivery": 3648,
      "ban": 3649,
      "ien": 3650,
      "½ï¸ı": 3651,
      "Ģï¸ı": 3652,
      "itect": 3653,
      "Ġmid": 3654,
      "icip": 3655,
      "aris": 3656,
      "Ġever": 3657,
      "irl": 3658,
      "ĠEu": 3659,
      "Ġund": 3660,
      "Ġincorpor": 3661,
      "Ġfollows": 3662,
      "Ġlanguages": 3663,
      "Ġeverything": 3664,
      "Ġapprox": 3665,
      "Ġenhancing": 3666,
      "ĠAnal": 3667,
      "Ġcombination": 3668,
      "Ġinteresting": 3669,
      "Ġlayer": 3670,
      "ĠMarketing": 3671,
      "Therefore": 3672,
      "ged": 3673,
      "uments": 3674,
      "onds": 3675,
      "Ġwatch": 3676,
      "outh": 3677,
      "action": 3678,
      "Ġweight": 3679,
      "Ġphone": 3680,
      "Ġtransl": 3681,
      "Ġhighlight": 3682,
      "ĠðŁįİ": 3683,
      "ĠðŁļ«": 3684,
      "Ġdistinct": 3685,
      "Ġfacing": 3686,
      "Ġmagic": 3687,
      "Ġinvestment": 3688,
      "Ġcausing": 3689,
      "Ġbelieve": 3690,
      "Ġdynamic": 3691,
      "Ġmaximum": 3692,
      "Ġmetaphor": 3693,
      "Im": 3694,
      "ios": 3695,
      "min": 3696,
      "Ġap": 3697,
      "Ġpair": 3698,
      "roc": 3699,
      "ðŁ¦": 3700,
      "Ġhor": 3701,
      "Ġlibr": 3702,
      "ilit": 3703,
      "Ġord": 3704,
      "ĠHer": 3705,
      "ĠPract": 3706,
      "Ġrh": 3707,
      "Ġshape": 3708,
      "Ġoutd": 3709,
      "Ġactive": 3710,
      "Ġwhole": 3711,
      "Ġremove": 3712,
      "Ġrequest": 3713,
      "Ġmathemat": 3714,
      "Ġeducational": 3715,
      "ĠWhile": 3716,
      "Ġscenar": 3717,
      "Ġrapid": 3718,
      "Come": 3719,
      "ĠAt": 3720,
      "ĠSal": 3721,
      "Ġallow": 3722,
      "izz": 3723,
      "Ġteas": 3724,
      "Ġseem": 3725,
      "Ġseamless": 3726,
      "Ġdesired": 3727,
      "Ġthemes": 3728,
      "Ġbutter": 3729,
      "Ġdeveloped": 3730,
      "ought": 3731,
      "Ġprotection": 3732,
      "Ġpainting": 3733,
      "Compare": 3734,
      "Ġbirds": 3735,
      "Ġearly": 3736,
      "Ġfelt": 3737,
      "comm": 3738,
      "of": 3739,
      "powered": 3740,
      "vent": 3741,
      "erate": 3742,
      "Ġcher": 3743,
      "Ġfair": 3744,
      "ided": 3745,
      "ĠSystem": 3746,
      "ĠEns": 3747,
      "andemic": 3748,
      "rought": 3749,
      "Ġvision": 3750,
      "Ġsurve": 3751,
      "Ġentire": 3752,
      "Ġbelow": 3753,
      "Ġseek": 3754,
      "ĠðŁ§ł": 3755,
      "Ġmindful": 3756,
      "Ġguidance": 3757,
      "Ar": 3758,
      "¥ï¸ı": 3759,
      "inated": 3760,
      "Ġslic": 3761,
      "Ġsince": 3762,
      "anqu": 3763,
      "Ġwrite": 3764,
      "ried": 3765,
      "rief": 3766,
      "ĠPe": 3767,
      "dule": 3768,
      "Ġ==": 3769,
      "Ġmechan": 3770,
      "Ġmanufact": 3771,
      "ĠðŁĵ±": 3772,
      "Ġparts": 3773,
      "Ġdiscovered": 3774,
      "Ġconcise": 3775,
      "Ġgroups": 3776,
      "Ġkindness": 3777,
      "Ġpolicy": 3778,
      "ĠAmazon": 3779,
      "ĠRevolution": 3780,
      "Ġgarlic": 3781,
      "ĠPersonal": 3782,
      "(\"": 3783,
      "af": 3784,
      "zy": 3785,
      "ened": 3786,
      "Ġfast": 3787,
      "Ġfram": 3788,
      "Ġfoot": 3789,
      "ĠTw": 3790,
      "Ġglow": 3791,
      "stac": 3792,
      "Ġsty": 3793,
      "Ġstories": 3794,
      "Ġstyle": 3795,
      "estic": 3796,
      "ĠEduc": 3797,
      "Ġdeeper": 3798,
      "Ġhelping": 3799,
      "Ġdish": 3800,
      "Ġsociet": 3801,
      "Ġsummer": 3802,
      "Ġlapt": 3803,
      "Ġsmaller": 3804,
      "Ġlocation": 3805,
      "Ġbelong": 3806,
      "Ġstandard": 3807,
      "ĠðŁĩºðŁĩ¸": 3808,
      "Ġconsumption": 3809,
      "Ġcapture": 3810,
      "orb": 3811,
      "Ġstates": 3812,
      "Ġitem": 3813,
      "ecut": 3814,
      "ĠWhe": 3815,
      "Ġeffort": 3816,
      "Ġtranspare": 3817,
      "Ġrandom": 3818,
      "Ġbuy": 3819,
      "Ġreading": 3820,
      "Ġcapabilities": 3821,
      "Construct": 3822,
      "ography": 3823,
      "Ġpolicies": 3824,
      "Ġprimary": 3825,
      "Ġconsidered": 3826,
      "ĠFrance": 3827,
      "ĠArtificial": 3828,
      "xygen": 3829,
      "Ġapproximately": 3830,
      "Ġic": 3831,
      "Ġpun": 3832,
      "arian": 3833,
      "ird": 3834,
      "Ġconduct": 3835,
      "ump": 3836,
      "ĠðŁĮ³": 3837,
      "ĠDec": 3838,
      "Ġ(-": 3839,
      "Ġseason": 3840,
      "Ġappl": 3841,
      "Ġdisrupt": 3842,
      "ĠNe": 3843,
      "Ġscal": 3844,
      "Ġmanaging": 3845,
      "rypt": 3846,
      "Ġprep": 3847,
      "Ġremote": 3848,
      "Ġhighly": 3849,
      "Ġclassification": 3850,
      "Ġgraph": 3851,
      "Ġextract": 3852,
      "Ġanalyzing": 3853,
      "Ġrelease": 3854,
      "Ġcommonly": 3855,
      "Ġsatisf": 3856,
      "Ġsmartph": 3857,
      "Ġobstac": 3858,
      "ĠModel": 3859,
      "Ġamazing": 3860,
      "iant": 3861,
      "Ġtone": 3862,
      "Ġaff": 3863,
      "Ġcities": 3864,
      "Ġopp": 3865,
      "Ġpan": 3866,
      "roll": 3867,
      "Ġnest": 3868,
      "Ġforms": 3869,
      "Ġchick": 3870,
      "active": 3871,
      "Ġrules": 3872,
      "Ġseems": 3873,
      "Ġ24": 3874,
      "Ġreliable": 3875,
      "Ġtransactions": 3876,
      "Ġexploring": 3877,
      "Ġclassified": 3878,
      "ployment": 3879,
      "Ġmemories": 3880,
      "ĠImp": 3881,
      "Ġexperienc": 3882,
      "Ġeasily": 3883,
      "Ġcaused": 3884,
      "umbled": 3885,
      "Ġfundamental": 3886,
      "!\"": 3887,
      "First": 3888,
      "NA": 3889,
      "mit": 3890,
      "Ġpow": 3891,
      "Ġpiece": 3892,
      "icing": 3893,
      "icated": 3894,
      "ulate": 3895,
      "Ġvent": 3896,
      "Ġcompared": 3897,
      "Ġcompassion": 3898,
      "Ġadvert": 3899,
      "Ġrecent": 3900,
      "oved": 3901,
      "Ġ50": 3902,
      "Ġsets": 3903,
      "Ġauthent": 3904,
      "rope": 3905,
      "Ġbalanced": 3906,
      "Ġtemperatures": 3907,
      "Ġmilk": 3908,
      "Ġgrammar": 3909,
      "Ġuniverse": 3910,
      "ĠEncourage": 3911,
      "esc": 3912,
      "ann": 3913,
      "Ġbond": 3914,
      "Ġrew": 3915,
      "osed": 3916,
      "ĠRep": 3917,
      "Ġcontact": 3918,
      "Ġclar": 3919,
      "Ġassign": 3920,
      "Ġbenefit": 3921,
      "Ġconnected": 3922,
      "espread": 3923,
      "Ġcareer": 3924,
      "Ġamounts": 3925,
      "Ġfostering": 3926,
      "Ġsequence": 3927,
      "Ġfavorite": 3928,
      "gon": 3929,
      "Ġbag": 3930,
      "iced": 3931,
      "icro": 3932,
      "Ġlat": 3933,
      "iration": 3934,
      "Ġenables": 3935,
      "ĠPer": 3936,
      "ĠFrom": 3937,
      "arding": 3938,
      "Ġconservation": 3939,
      "Ġposition": 3940,
      "Ġpassword": 3941,
      "Ġtopics": 3942,
      "Ġanalytics": 3943,
      "Ġdepth": 3944,
      "Ġlegal": 3945,
      "Ġwidespread": 3946,
      "Ġlimited": 3947,
      "Ġcells": 3948,
      "ĠCollabor": 3949,
      "Ġroutine": 3950,
      "Ġmitigate": 3951,
      "ĠEurope": 3952,
      "ares": 3953,
      "hus": 3954,
      "Ġking": 3955,
      "Ġtense": 3956,
      "hest": 3957,
      "Ġocean": 3958,
      "ĠĠĠ": 3959,
      "elves": 3960,
      "ĠAccess": 3961,
      "Ġplans": 3962,
      "Ġtechnological": 3963,
      "Ġaccording": 3964,
      "Ġclassic": 3965,
      "Ġmulti": 3966,
      "Ġfulf": 3967,
      "Ġthoughts": 3968,
      "Ġcontinued": 3969,
      "Ġupdates": 3970,
      "Ġgames": 3971,
      "iate": 3972,
      "ĊĊĠĠĠ": 3973,
      "inc": 3974,
      "ouds": 3975,
      "Ġlines": 3976,
      "Ġstill": 3977,
      "ĠAg": 3978,
      "Ġcannot": 3979,
      "estion": 3980,
      "ĠðŁĮĪ": 3981,
      "ĊĠĠĠĠĠĠ": 3982,
      "arkable": 3983,
      "Ġdeveloping": 3984,
      "Ġsummar": 3985,
      "Ġaccessible": 3986,
      "Ġsustainability": 3987,
      "Ġsalt": 3988,
      "Ġemployee": 3989,
      "Ġminimize": 3990,
      "Ġpurchase": 3991,
      "ĊĠĠĠĠĠ": 3992,
      "Ġcategories": 3993,
      "Ġregulations": 3994,
      "Us": 3995,
      "Ġsere": 3996,
      "Ġpandemic": 3997,
      "Ġreason": 3998,
      "Ġhom": 3999,
      "une": 4000,
      "verb": 4001,
      "Ġwhite": 4002,
      "ocks": 4003,
      "ĠMe": 4004,
      "Ġ30": 4005,
      "Ġcreated": 4006,
      "Ġplayers": 4007,
      "Ġsunlight": 4008,
      "ðŁĶį": 4009,
      "Ġprofession": 4010,
      "Ġinspire": 4011,
      "Ġcolorful": 4012,
      "ĠðŁĶĦ": 4013,
      "Ġerrors": 4014,
      "Ġcommitment": 4015,
      "ĠSecurity": 4016,
      "Ġexpenses": 4017,
      "ĠâĪļ": 4018,
      "Ġarchitect": 4019,
      "ĠWhether": 4020,
      "husi": 4021,
      ")^": 4022,
      "EO": 4023,
      "From": 4024,
      "itions": 4025,
      "Ġpark": 4026,
      "Ġbow": 4027,
      "opy": 4028,
      "Ġriver": 4029,
      "cessing": 4030,
      "Ġtranqu": 4031,
      "Ġrob": 4032,
      "Ġscore": 4033,
      "Ġexploration": 4034,
      "Ġinteraction": 4035,
      "Ġconsiderations": 4036,
      "ashion": 4037,
      "Ġrunning": 4038,
      "Ġlikely": 4039,
      "50": 4040,
      "¦ðŁ": 4041,
      "Ġfant": 4042,
      "Ġbrought": 4043,
      "omen": 4044,
      "Ġheight": 4045,
      "Ġanx": 4046,
      "ĠCreat": 4047,
      "aint": 4048,
      "Ġchain": 4049,
      "Ġabilities": 4050,
      "iber": 4051,
      "erving": 4052,
      "ervice": 4053,
      "Ġhealthier": 4054,
      "Ġcold": 4055,
      "ĠJust": 4056,
      "Ġcarry": 4057,
      "Ġremarkable": 4058,
      "Ġenthusi": 4059,
      "Ġgrace": 4060,
      "Ġhappiness": 4061,
      "Ġfreedom": 4062,
      "Ġlimit": 4063,
      "ĠHTML": 4064,
      "iation": 4065,
      "ml": 4066,
      "ĠZ": 4067,
      "inner": 4068,
      "Ġtomat": 4069,
      "ĠSQL": 4070,
      "aken": 4071,
      "ĠðŁ¤Ŀ": 4072,
      "pected": 4073,
      "Ġmachines": 4074,
      "ĠIntelligence": 4075,
      "Ġchanging": 4076,
      "ĠTherefore": 4077,
      "Compose": 4078,
      "ĠUsing": 4079,
      "ĠAnalysis": 4080,
      "ded": 4081,
      "dro": 4082,
      "iec": 4083,
      "Ġmist": 4084,
      "iding": 4085,
      "agon": 4086,
      "Ġcompare": 4087,
      "ĠMy": 4088,
      "ĠOutput": 4089,
      "Ġunf": 4090,
      "Ġinvent": 4091,
      "Ġcreates": 4092,
      "Ġprompt": 4093,
      "ĠIntrodu": 4094,
      "Ġinterests": 4095,
      "string": 4096,
      "Ġbiod": 4097,
      "Ġexcell": 4098,
      "Ġcritical": 4099,
      "Analyze": 4100,
      "ĠKeep": 4101,
      "Ġinclusive": 4102,
      "Let": 4103,
      "rim": 4104,
      "ratic": 4105,
      "Ġsess": 4106,
      "Ġpen": 4107,
      "Ġet": 4108,
      "Ġgirl": 4109,
      "ĠTheir": 4110,
      "Ġvary": 4111,
      "Ġchoose": 4112,
      "epar": 4113,
      "avors": 4114,
      "Ġplayed": 4115,
      "ission": 4116,
      "Ġinternational": 4117,
      "Ġcauses": 4118,
      "Convert": 4119,
      "Ġscene": 4120,
      "ĠManagement": 4121,
      "etermine": 4122,
      "..": 4123,
      "efficient": 4124,
      "alf": 4125,
      "alities": 4126,
      "Ġmole": 4127,
      "Ġhon": 4128,
      "ĠTake": 4129,
      "Ġstock": 4130,
      "ĠCo": 4131,
      "ĠEc": 4132,
      "Ġran": 4133,
      "Ġcompelling": 4134,
      "Ġacad": 4135,
      "ĠUnderstand": 4136,
      "Ġmanner": 4137,
      "ĠStr": 4138,
      "Ġrespond": 4139,
      "anguage": 4140,
      "Ġplanning": 4141,
      "Ġfacilit": 4142,
      "Ġengineering": 4143,
      "Step": 4144,
      "Ġdiagn": 4145,
      "Ġcompanies": 4146,
      "Int": 4147,
      "Ġcooking": 4148,
      "Ġfish": 4149,
      "Ġwa": 4150,
      "Ġstunning": 4151,
      "ull": 4152,
      "Ġhear": 4153,
      "istance": 4154,
      "Ġspaces": 4155,
      "Ġautonomous": 4156,
      "Ġcontributing": 4157,
      "ĠIntern": 4158,
      "Ġfaced": 4159,
      "____": 4160,
      "Ġoccur": 4161,
      "Ġcomfortable": 4162,
      "Ġjoin": 4163,
      "Ġconvey": 4164,
      "ĠOptim": 4165,
      "Ġteaspoon": 4166,
      "ieces": 4167,
      "14": 4168,
      "cher": 4169,
      "Ġir": 4170,
      "Ł¦ðŁ": 4171,
      "Ġparent": 4172,
      "Ġhold": 4173,
      "ĠAct": 4174,
      "umn": 4175,
      "ĠBut": 4176,
      "ĠDo": 4177,
      "Ġfeet": 4178,
      "Ġclouds": 4179,
      "Ġoutside": 4180,
      "ĠInvest": 4181,
      "Ġleader": 4182,
      "Ġinvolved": 4183,
      "Ġstarting": 4184,
      "Ġcenter": 4185,
      "Ġnutri": 4186,
      "Ġsorted": 4187,
      "Ġerror": 4188,
      "Ġexisting": 4189,
      "Ġalternative": 4190,
      "Ġinterpret": 4191,
      "Ġgolden": 4192,
      "ĠImpact": 4193,
      "30": 4194,
      "hood": 4195,
      "lines": 4196,
      "Ġtheory": 4197,
      "Ġpet": 4198,
      "Ġbread": 4199,
      "ether": 4200,
      "Ġones": 4201,
      "unction": 4202,
      "Ġlever": 4203,
      "Ġsugar": 4204,
      "Ġprices": 4205,
      "lectric": 4206,
      "Ġâĺ": 4207,
      "Ġtreasure": 4208,
      "Ġfactor": 4209,
      "ĠInteg": 4210,
      "Ġfocused": 4211,
      "ĠExper": 4212,
      "Ġoptimization": 4213,
      "ĠOrgan": 4214,
      "Ġdelightful": 4215,
      "Ġentertainment": 4216,
      "ĠEnsure": 4217,
      "iol": 4218,
      "num": 4219,
      "rust": 4220,
      "inu": 4221,
      "Ġfashion": 4222,
      "arry": 4223,
      "arily": 4224,
      "ask": 4225,
      "Ġhost": 4226,
      "char": 4227,
      "urance": 4228,
      "orest": 4229,
      "ustling": 4230,
      "aced": 4231,
      "Ġapps": 4232,
      "apan": 4233,
      "Ġtrained": 4234,
      "Ġtrade": 4235,
      "Ġscale": 4236,
      "Ġformat": 4237,
      "Ġmaintenance": 4238,
      "Ġparty": 4239,
      "âĢĿ": 4240,
      "Ġfamil": 4241,
      "ronic": 4242,
      "Ġtook": 4243,
      "Ġquantum": 4244,
      "Ġlaughter": 4245,
      "NN": 4246,
      "Ġtall": 4247,
      "erative": 4248,
      "Ġcategory": 4249,
      "Ġoption": 4250,
      "Ġda": 4251,
      "Ġdivid": 4252,
      "ðŁ§": 4253,
      "Ġreality": 4254,
      "Ġlack": 4255,
      "Ġstir": 4256,
      "una": 4257,
      "Ġexch": 4258,
      "ĠPart": 4259,
      "Ġsports": 4260,
      "ĠWind": 4261,
      "rug": 4262,
      "Ġresource": 4263,
      "ansion": 4264,
      "ĠGreat": 4265,
      "Ġoverview": 4266,
      "Ġtransition": 4267,
      "Ġplayer": 4268,
      "Ġflu": 4269,
      "ĠImpro": 4270,
      "ĠResearch": 4271,
      "ĠâĢľ": 4272,
      "Ġurban": 4273,
      "Ġconflict": 4274,
      "Ġlaptop": 4275,
      "Ł¦ðŁŁ¦ðŁ": 4276,
      "'.": 4277,
      "Make": 4278,
      "Script": 4279,
      "dle": 4280,
      "la": 4281,
      "atile": 4282,
      "Ġcross": 4283,
      "Ġfitness": 4284,
      "Ġdam": 4285,
      "Ġreve": 4286,
      "Ġnoun": 4287,
      "ĠDesp": 4288,
      "asts": 4289,
      "Ġunex": 4290,
      "Ġreduced": 4291,
      "Ġcoord": 4292,
      "Ġsaid": 4293,
      "Ġassistants": 4294,
      "everance": 4295,
      "Ġrealized": 4296,
      "Ġpossess": 4297,
      "Ġresponses": 4298,
      "Ġwarmth": 4299,
      "Ġmagn": 4300,
      "Ġcentral": 4301,
      "Ġadventures": 4302,
      "Ġproperty": 4303,
      "Ġrevolutionize": 4304,
      "Ġdarkness": 4305,
      "Ġinitiatives": 4306,
      "?\"": 4307,
      "Furthermore": 4308,
      "gment": 4309,
      "ma": 4310,
      "Ġcou": 4311,
      "Ġdial": 4312,
      "eds": 4313,
      "Ġlink": 4314,
      "Ġstumbled": 4315,
      "ading": 4316,
      "oreover": 4317,
      "Ġrather": 4318,
      "Ġkn": 4319,
      "Ġserves": 4320,
      "ðŁĮ¿": 4321,
      "Ġretur": 4322,
      "Ġhearts": 4323,
      "Ġconsumer": 4324,
      "ffective": 4325,
      "Ġinspiring": 4326,
      "Ġgaming": 4327,
      "Ġdegrees": 4328,
      "Ġbowl": 4329,
      "ĠDespite": 4330,
      "Ġunexpected": 4331,
      "Fe": 4332,
      "most": 4333,
      "rics": 4334,
      "Ġpieces": 4335,
      "Ġmamm": 4336,
      "room": 4337,
      "Ġnode": 4338,
      "ching": 4339,
      "igious": 4340,
      "ames": 4341,
      "aps": 4342,
      "ĠJapan": 4343,
      "Ġblack": 4344,
      "Ġcover": 4345,
      "Ġclassify": 4346,
      "Ġorganisms": 4347,
      "Design": 4348,
      "Ġbeneficial": 4349,
      "Ġidentity": 4350,
      "Ġlogical": 4351,
      "Ġvideo": 4352,
      "related": 4353,
      "Ġmountains": 4354,
      "Ġscenario": 4355,
      "++": 4356,
      "16": 4357,
      "lude": 4358,
      "Ġthems": 4359,
      "Ġsolving": 4360,
      "Ġput": 4361,
      "Ġwis": 4362,
      "ley": 4363,
      "icine": 4364,
      "Ġdone": 4365,
      "ĠAv": 4366,
      "ured": 4367,
      "agine": 4368,
      "ĠPol": 4369,
      "ĠðŁĮ²": 4370,
      "Ġ13": 4371,
      "ogether": 4372,
      "anges": 4373,
      "ĠBuild": 4374,
      "ĠGl": 4375,
      "ĠUp": 4376,
      "Ġnote": 4377,
      "Ġformal": 4378,
      "Ġexplan": 4379,
      "Ġensures": 4380,
      "Ġfinal": 4381,
      "Ġpursu": 4382,
      "inkle": 4383,
      "Ġgetting": 4384,
      "Ġefficiently": 4385,
      "Ġautomate": 4386,
      "Ġconstant": 4387,
      "Ġflowers": 4388,
      "Ġsensitive": 4389,
      "Ġencountered": 4390,
      "Ġvideos": 4391,
      "Ġcyber": 4392,
      "Ġcreation": 4393,
      "Ġadjectives": 4394,
      "going": 4395,
      "live": 4396,
      "Ã©": 4397,
      "Ġoxygen": 4398,
      "Ġdress": 4399,
      "Ġthor": 4400,
      "ilt": 4401,
      "aby": 4402,
      "ensive": 4403,
      "ĠðŁİµ": 4404,
      "ĠEnergy": 4405,
      "Ġfocuses": 4406,
      "elsius": 4407,
      "ognitive": 4408,
      "Ġdetermined": 4409,
      "Ġanticip": 4410,
      "Ġincredible": 4411,
      "Ġmanufacturing": 4412,
      "Ġanxiety": 4413,
      "Ġthemselves": 4414,
      "right": 4415,
      "whel": 4416,
      "inate": 4417,
      "repre": 4418,
      "onym": 4419,
      "Ġsepar": 4420,
      "Ġcivil": 4421,
      "orrow": 4422,
      "Ġfalse": 4423,
      "Ġbree": 4424,
      "usiness": 4425,
      "ĠTest": 4426,
      "amer": 4427,
      "Ġexh": 4428,
      "Ġ14": 4429,
      "ocate": 4430,
      "Ġspent": 4431,
      "ĠMax": 4432,
      "Ġteacher": 4433,
      "Ġwealth": 4434,
      "Ġunits": 4435,
      "Ġju": 4436,
      "ĠNatural": 4437,
      "Ġsoon": 4438,
      "Ġpersu": 4439,
      "Ġfunctions": 4440,
      "Ġrequired": 4441,
      "ptional": 4442,
      "ĠInter": 4443,
      "Ġmemor": 4444,
      "Ġintegers": 4445,
      "Ġresponsibility": 4446,
      "Ġmiles": 4447,
      "Ġinitial": 4448,
      "Ġdedicated": 4449,
      "hetic": 4450,
      "ĠJavaScript": 4451,
      "ĠComput": 4452,
      "Ġobstacles": 4453,
      "Ġnestled": 4454,
      "Ġdialog": 4455,
      "reprene": 4456,
      ".,": 4457,
      "known": 4458,
      "lt": 4459,
      "oin": 4460,
      "Ġsoul": 4461,
      "Ġcub": 4462,
      "Ġbit": 4463,
      "Ġbul": 4464,
      "ðŁ¤": 4465,
      "uth": 4466,
      "abet": 4467,
      "ĠPower": 4468,
      "Ġunl": 4469,
      "Ġseen": 4470,
      "Ġroles": 4471,
      "Ġinterface": 4472,
      "ĠProt": 4473,
      "Ġimprovement": 4474,
      "Ġlarger": 4475,
      "Ġrising": 4476,
      "Ġintegration": 4477,
      "Ġproperties": 4478,
      "Ġpurposes": 4479,
      "Ġvisually": 4480,
      "ĠClimate": 4481,
      "Ġoccurs": 4482,
      "Ġdedication": 4483,
      "Ġbrows": 4484,
      "Ġopinion": 4485,
      "13": 4486,
      "įï¸ı": 4487,
      "Ġplease": 4488,
      "Ġmood": 4489,
      "Ġbrief": 4490,
      "asive": 4491,
      "Ġlost": 4492,
      "Ġgroc": 4493,
      "Ġstage": 4494,
      "Ġexecut": 4495,
      "ĠCost": 4496,
      "umes": 4497,
      "Ġrule": 4498,
      "ĠThank": 4499,
      "Ġcommand": 4500,
      "Ġoutline": 4501,
      "ĠðŁĵĲ": 4502,
      "Ġdecre": 4503,
      "Ġdecided": 4504,
      "ĠðŁĺĶ": 4505,
      "Ġremember": 4506,
      "nected": 4507,
      "Ġlonger": 4508,
      "Ġpossibilities": 4509,
      "roduct": 4510,
      "Ġserver": 4511,
      "Ġwritten": 4512,
      "Ġdragon": 4513,
      "Ġhighest": 4514,
      "Ġreviews": 4515,
      "Ġdirectly": 4516,
      "Ġsecrets": 4517,
      "Ġrobust": 4518,
      "RO": 4519,
      "Where": 4520,
      "hay": 4521,
      "vised": 4522,
      "Ġsight": 4523,
      "ene": 4524,
      "Ġearth": 4525,
      "imm": 4526,
      "odies": 4527,
      "ĠLanguage": 4528,
      "Ġscreen": 4529,
      "Ġdescript": 4530,
      "order": 4531,
      "ĠVis": 4532,
      "Ġreven": 4533,
      "Ġfuel": 4534,
      "ðŁĴ»": 4535,
      "Ġ202": 4536,
      "Ġserve": 4537,
      "Ġimplementation": 4538,
      "ĠUser": 4539,
      "Ġdisease": 4540,
      "Ġprotein": 4541,
      "ĠðŁĸ¥ï¸ı": 4542,
      "Ġextreme": 4543,
      "ĠPractice": 4544,
      "Ġprofessionals": 4545,
      "fric": 4546,
      "pite": 4547,
      "range": 4548,
      "ino": 4549,
      "Ġbed": 4550,
      "Ġnuc": 4551,
      "olate": 4552,
      "idge": 4553,
      "Ġprob": 4554,
      "Ġheard": 4555,
      "alls": 4556,
      "Ġabove": 4557,
      "ĠOff": 4558,
      "ĠGet": 4559,
      "Ġroll": 4560,
      "ĠUtil": 4561,
      "Ġovercome": 4562,
      "Ġworkplace": 4563,
      "encies": 4564,
      "Ġbecomes": 4565,
      "Ġfoods": 4566,
      "Ġrevolutionized": 4567,
      "Ġwalking": 4568,
      "Ġconsistent": 4569,
      "driven": 4570,
      "Ġabsorb": 4571,
      "Ġparticularly": 4572,
      "Ġsavings": 4573,
      "Ġsurvival": 4574,
      "ĠTechnology": 4575,
      "Ġcandid": 4576,
      "Ġlatest": 4577,
      "Ġthorough": 4578,
      "Calculate": 4579,
      "SS": 4580,
      "lin": 4581,
      "uzz": 4582,
      "Â²": 4583,
      "Ġtell": 4584,
      "ords": 4585,
      "vere": 4586,
      "Ġgases": 4587,
      "idents": 4588,
      "ĠIs": 4589,
      "Ġstruct": 4590,
      "ĠAll": 4591,
      "ĠClear": 4592,
      "ĠPot": 4593,
      "ĠMain": 4594,
      "tering": 4595,
      "Ġemails": 4596,
      "Ġmanip": 4597,
      "Ġperseverance": 4598,
      "phant": 4599,
      "Ġeco": 4600,
      "ĠðŁį½ï¸ı": 4601,
      "Ġpassed": 4602,
      "Ġgrowing": 4603,
      "Ġmath": 4604,
      "Ġinteger": 4605,
      "Ġidentifying": 4606,
      "Ġconcepts": 4607,
      "Ġbird": 4608,
      "Ġbelief": 4609,
      "Ġlaws": 4610,
      "Ġinterview": 4611,
      "ĠAbhay": 4612,
      "Ġbeginning": 4613,
      "ameters": 4614,
      "Ġframew": 4615,
      "Ġserene": 4616,
      "Ġacademic": 4617,
      "Ġbreeze": 4618,
      "fit": 4619,
      "na": 4620,
      "ror": 4621,
      "sy": 4622,
      "ellow": 4623,
      "Ġann": 4624,
      "Ġdeath": 4625,
      "anging": 4626,
      "ĠOver": 4627,
      "Ġoverwhel": 4628,
      "Ġintercon": 4629,
      "ishing": 4630,
      "Ġpotentially": 4631,
      "Ġmeditation": 4632,
      "Ġlaunch": 4633,
      "Ġcomplexity": 4634,
      "ĠEnvironment": 4635,
      "Ġdepend": 4636,
      "ĠðŁ§®": 4637,
      "Ġstandards": 4638,
      "Ġprevious": 4639,
      "Ġreaching": 4640,
      "Ġmovement": 4641,
      "ĠOnline": 4642,
      "ĠGermany": 4643,
      "\")": 4644,
      "Categor": 4645,
      "Is": 4646,
      "man": 4647,
      "itely": 4648,
      "Ġod": 4649,
      "Ġwaves": 4650,
      "arah": 4651,
      "step": 4652,
      "Ġongoing": 4653,
      "ĠCat": 4654,
      "Ġcompl": 4655,
      "ĠResp": 4656,
      "Ġcla": 4657,
      "Ġdishes": 4658,
      "Ġtrying": 4659,
      "Ġconsists": 4660,
      "Ġbecoming": 4661,
      "Ġagree": 4662,
      "ĠChoose": 4663,
      "ĠChina": 4664,
      "ĠEnjoy": 4665,
      "iances": 4666,
      "Ġcarefully": 4667,
      "Ġforests": 4668,
      "Ġautomation": 4669,
      "Ġimmed": 4670,
      "Ġmoments": 4671,
      "Ġperspective": 4672,
      "Ġhabits": 4673,
      "Ġreflects": 4674,
      "Ġchoices": 4675,
      "Ġmonitor": 4676,
      "Ġstraw": 4677,
      "commerce": 4678,
      "Ġinterconnected": 4679,
      "\">": 4680,
      "::": 4681,
      "When": 4682,
      "ipp": 4683,
      "ken": 4684,
      "rate": 4685,
      "tings": 4686,
      "uis": 4687,
      "water": 4688,
      "Ġcame": 4689,
      "Ġfaster": 4690,
      "Ġine": 4691,
      "Ġlate": 4692,
      "Ġgiving": 4693,
      "ection": 4694,
      "Ġsubs": 4695,
      "Ġwhisp": 4696,
      "ĠEv": 4697,
      "illa": 4698,
      "Ġreson": 4699,
      "Ġclos": 4700,
      "vironments": 4701,
      "Ġblo": 4702,
      "onomic": 4703,
      "Ġorganized": 4704,
      "Ġstrategic": 4705,
      "Ġenjoyable": 4706,
      "Ġinspired": 4707,
      "Ġpromotes": 4708,
      "Ġhyper": 4709,
      "Ġpeaceful": 4710,
      "Ġchatbots": 4711,
      "Ġincredibly": 4712,
      "ĠPresident": 4713,
      "Ġschedule": 4714,
      "45": 4715,
      "Em": 4716,
      "cer": 4717,
      "ky": 4718,
      "ncy": 4719,
      "oe": 4720,
      "Ġwoman": 4721,
      "ĠTime": 4722,
      "ulations": 4723,
      "ĠThen": 4724,
      "Ġapples": 4725,
      "Ġaccel": 4726,
      "Ġperce": 4727,
      "Ġdiscover": 4728,
      "Ġâľ¨": 4729,
      "ĠKoul": 4730,
      "Ġhands": 4731,
      "ðŁĶ¬": 4732,
      "Ġbehaviors": 4733,
      "Ġfalls": 4734,
      "Ġeye": 4735,
      "Ġgrammat": 4736,
      "Ġtailored": 4737,
      "Ġencourages": 4738,
      "Ġiconic": 4739,
      "Ġafford": 4740,
      "Ex": 4741,
      "bles": 4742,
      "book": 4743,
      "fast": 4744,
      "lights": 4745,
      "uations": 4746,
      "Ġwinter": 4747,
      "ented": 4748,
      "elcome": 4749,
      "Ġpropos": 4750,
      "ĠAfric": 4751,
      "Ġenvironments": 4752,
      "Ġvirus": 4753,
      "ĠProm": 4754,
      "ĠExpl": 4755,
      "ĠMany": 4756,
      "ĠBra": 4757,
      "ĠRem": 4758,
      "ĠRemember": 4759,
      "ifications": 4760,
      "Ġitself": 4761,
      "Ġskill": 4762,
      "Ġcoast": 4763,
      "Ġeffectiveness": 4764,
      "Ġregion": 4765,
      "Ġflight": 4766,
      "Ġflavors": 4767,
      "ĠProg": 4768,
      "Ġentreprene": 4769,
      "Ġwebsites": 4770,
      "Ġcultures": 4771,
      "Ġlegend": 4772,
      "Ġlayers": 4773,
      "Ġsuggestions": 4774,
      "Ġharmony": 4775,
      "Ġbringing": 4776,
      "Ġdogs": 4777,
      "Ġcompetition": 4778,
      "Ġpayment": 4779,
      "ĠCanad": 4780,
      "Ġconvenient": 4781,
      "ĠCommunication": 4782,
      "Ġsandw": 4783,
      "Ġappealing": 4784,
      "Ġsocietal": 4785,
      "Ġnutrients": 4786,
      "Ġmemorable": 4787,
      "Com": 4788,
      "fra": 4789,
      "ned": 4790,
      "sp": 4791,
      "sq": 4792,
      "Ġid": 4793,
      "Ġslow": 4794,
      "Ġsnow": 4795,
      "Ġcake": 4796,
      "Ġcats": 4797,
      "iter": 4798,
      "Ġdinner": 4799,
      "Ġeating": 4800,
      "Ġhun": 4801,
      "Ġforces": 4802,
      "elines": 4803,
      "ĠBrit": 4804,
      "Ġshad": 4805,
      "Ġshift": 4806,
      "artment": 4807,
      "ĠGra": 4808,
      "ĠNetw": 4809,
      "ĠNLP": 4810,
      "ĠYork": 4811,
      "Ġwilling": 4812,
      "ĠðŁİ¬": 4813,
      "Ġsimply": 4814,
      "Ġteams": 4815,
      "ĠExp": 4816,
      "Ġbox": 4817,
      "Ġnames": 4818,
      "Ġinvesting": 4819,
      "ĠðŁĽ¡ï¸ı": 4820,
      "Ġimmers": 4821,
      "Ġlinear": 4822,
      "Ġsuggests": 4823,
      "Additionally": 4824,
      "Ġvolume": 4825,
      "Ġarchitecture": 4826,
      "Categorize": 4827,
      "75": 4828,
      "Determine": 4829,
      "En": 4830,
      "Here": 4831,
      "ians": 4832,
      "table": 4833,
      "©âĢį": 4834,
      "Ġ>": 4835,
      "Ġcycle": 4836,
      "Ġbustling": 4837,
      "ĠArea": 4838,
      "Ġcondition": 4839,
      "Ġenough": 4840,
      "ĠEst": 4841,
      "ĠBusiness": 4842,
      "Ġtraits": 4843,
      "Ġoutcome": 4844,
      "Ġsaw": 4845,
      "Ġrepe": 4846,
      "Ġconnections": 4847,
      "Ġfix": 4848,
      "Ġfilm": 4849,
      "vantages": 4850,
      "structions": 4851,
      "htaking": 4852,
      "Ġconsidering": 4853,
      "Ġstreamline": 4854,
      "Ġwildlife": 4855,
      "Ġtimeless": 4856,
      "Ġcaptivating": 4857,
      "ĠMaya": 4858,
      "Ġseemed": 4859,
      "ĠUnderstanding": 4860,
      "CT": 4861,
      "LE": 4862,
      "She": 4863,
      "Trans": 4864,
      "li": 4865,
      "Ġesc": 4866,
      "Ġsynt": 4867,
      "atoes": 4868,
      "Ġphen": 4869,
      "Ġder": 4870,
      "ental": 4871,
      "asm": 4872,
      "imet": 4873,
      "Ġhero": 4874,
      "Ġonion": 4875,
      "Ġleaving": 4876,
      "ĠHum": 4877,
      "ocation": 4878,
      "ĠMar": 4879,
      "ĠDon": 4880,
      "Ġquite": 4881,
      "Ġclothing": 4882,
      "Ġleadership": 4883,
      "ensity": 4884,
      "Ġpatients": 4885,
      "Ġpassing": 4886,
      "ĠðŁıĥ": 4887,
      "Ġgrav": 4888,
      "Ġendless": 4889,
      "ĠConc": 4890,
      "Ġresulting": 4891,
      "Ġmoving": 4892,
      "Add": 4893,
      "Ġmotivated": 4894,
      "Ġintegrity": 4895,
      "Ġcircle": 4896,
      "Ġmonitoring": 4897,
      "Ġpressure": 4898,
      "Ġwoods": 4899,
      "Ġyoga": 4900,
      "arison": 4901,
      "Ġadvertising": 4902,
      "ĊĠĠĠĠĠĠĠĠĠĠĠĠĠĠĠ": 4903,
      "Ġexchange": 4904,
      "100": 4905,
      "Area": 4906,
      "II": 4907,
      "Ġtaken": 4908,
      "atitude": 4909,
      "Ġcognitive": 4910,
      "Ġpiv": 4911,
      "Ġbinary": 4912,
      "Ġeager": 4913,
      "etitive": 4914,
      "ĠTom": 4915,
      "olar": 4916,
      "utton": 4917,
      "irm": 4918,
      "resp": 4919,
      "Ġspending": 4920,
      "Ġdead": 4921,
      "ĠMake": 4922,
      "Ġkit": 4923,
      "Ġcollection": 4924,
      "Ġcozy": 4925,
      "Ġflour": 4926,
      "Ġrefer": 4927,
      "ĠChar": 4928,
      "Ġlongest": 4929,
      "Ġlearned": 4930,
      "Ġachieving": 4931,
      "Ġ2020": 4932,
      "ĠEmbra": 4933,
      "Ġconsumers": 4934,
      "ðŁĵļ": 4935,
      "Ġscientists": 4936,
      "Ġrecognize": 4937,
      "Ġavailability": 4938,
      "Ġbreathtaking": 4939,
      "html": 4940,
      "Ġsimplify": 4941,
      "Ġappreciate": 4942,
      "Ġblockchain": 4943,
      "Ġdefinition": 4944,
      "Ġharness": 4945,
      "Ġbiodiversity": 4946,
      "down": 4947,
      "eled": 4948,
      "ira": 4949,
      "łï¸ı": 4950,
      "Ġcos": 4951,
      "Ġfile": 4952,
      "Ġwat": 4953,
      "Ġbaking": 4954,
      "iles": 4955,
      "Ġgot": 4956,
      "Ġstd": 4957,
      "ĠRo": 4958,
      "Ġknew": 4959,
      "ï¸ıâĢįâĻĤï¸ı": 4960,
      "Ġrot": 4961,
      "Ġrock": 4962,
      "lick": 4963,
      "Ġexpert": 4964,
      "arming": 4965,
      "Ġmedium": 4966,
      "ĠKing": 4967,
      "Ġgradu": 4968,
      "world": 4969,
      "Ġthrive": 4970,
      "Ġtransformed": 4971,
      "ĠðŁĳĭ": 4972,
      "Ġbroad": 4973,
      "Ġobserv": 4974,
      "Ġoutdoor": 4975,
      "Ġmathematical": 4976,
      "Ġsurvey": 4977,
      "Ġphenomen": 4978,
      "ER": 4979,
      "Ph": 4980,
      "mon": 4981,
      "name": 4982,
      "rt": 4983,
      "Ġtough": 4984,
      "inks": 4985,
      "input": 4986,
      "Ġsus": 4987,
      "Ġcit": 4988,
      "Ġolive": 4989,
      "Ġfail": 4990,
      "Ġdrug": 4991,
      "Ġeat": 4992,
      "Ġreus": 4993,
      "ests": 4994,
      "ĠBased": 4995,
      "ĠThrough": 4996,
      "Ġatom": 4997,
      "Ġaccept": 4998,
      "redict": 4999,
      "Ġrecord": 5000,
      "Ġinside": 5001,
      "Ġgrand": 5002,
      "Ġlocated": 5003,
      "ternal": 5004,
      "Ġhydro": 5005,
      "Ġversatile": 5006,
      "Ġdetection": 5007,
      "Ġconveys": 5008,
      "Ġmillion": 5009,
      "Ġphotosynthesis": 5010,
      "Ġchicken": 5011,
      "Ġexplanation": 5012,
      "alle": 5013,
      "Ġbill": 5014,
      "rog": 5015,
      "Ġnarr": 5016,
      "ĠCO": 5017,
      "Ġmeals": 5018,
      "Ġselection": 5019,
      "Ġconsult": 5020,
      "overs": 5021,
      "Ġcreature": 5022,
      "ĠStud": 5023,
      "Ġsmile": 5024,
      "Ġinstant": 5025,
      "Ġgeneration": 5026,
      "Ġbrain": 5027,
      "Ġcombine": 5028,
      "Ġconstruct": 5029,
      "Ġtargeted": 5030,
      "Ġthreats": 5031,
      "Ġspeaker": 5032,
      "Ġreturns": 5033,
      "Ġpersuasive": 5034,
      "sych": 5035,
      "Tell": 5036,
      "iability": 5037,
      "ipping": 5038,
      "oke": 5039,
      "¬ï¸ı": 5040,
      "ÏĢ": 5041,
      "Ġtale": 5042,
      "ont": 5043,
      "Ġcases": 5044,
      "anish": 5045,
      "Ġstability": 5046,
      "ulner": 5047,
      "Ġvital": 5048,
      "ript": 5049,
      "istical": 5050,
      "ĠEle": 5051,
      "ĠEth": 5052,
      "ĠWell": 5053,
      "ressive": 5054,
      "Ġindex": 5055,
      "ĠInf": 5056,
      "Ġprime": 5057,
      "Ġoffice": 5058,
      "Ġenvironmentally": 5059,
      "ĠðŁİ¶": 5060,
      "ĠProvide": 5061,
      "Ġforever": 5062,
      "Ġletters": 5063,
      "Ġconfident": 5064,
      "Ġfacial": 5065,
      "Ġfoundation": 5066,
      "ĠEmp": 5067,
      "Ġlasting": 5068,
      "Ġprimarily": 5069,
      "Ġdestination": 5070,
      "Ġsubstitut": 5071,
      "Ġevaluate": 5072,
      "Ġvariables": 5073,
      "Ġhypothesis": 5074,
      "Ġwisdom": 5075,
      "lished": 5076,
      "telling": 5077,
      "Ķï¸ı": 5078,
      "Ġahead": 5079,
      "Ġcuis": 5080,
      "itch": 5081,
      "Ġple": 5082,
      "Ġthing": 5083,
      "ĠAcc": 5084,
      "ĠSub": 5085,
      "oding": 5086,
      "Ġleave": 5087,
      "ighb": 5088,
      "osis": 5089,
      "Ġadopt": 5090,
      "Ġteen": 5091,
      "ĠRef": 5092,
      "ĠLuna": 5093,
      "Ġunknown": 5094,
      "Ġqueries": 5095,
      "Ġsched": 5096,
      "Ġscript": 5097,
      "oves": 5098,
      "olved": 5099,
      "Ġcalm": 5100,
      "Ġessence": 5101,
      "Ġattribut": 5102,
      "Ġorganic": 5103,
      "Ġinstead": 5104,
      "Ġ<<": 5105,
      "Ġgoods": 5106,
      "Ġvillagers": 5107,
      "ographics": 5108,
      "Ġ\\(": 5109,
      "Ġexceptional": 5110,
      "Ġexercises": 5111,
      "ĠReview": 5112,
      "Ġbrown": 5113,
      "instorm": 5114,
      "Ġsynonym": 5115,
      "ĠMedia": 5116,
      "minist": 5117,
      "Ġstructures": 5118,
      "\"?": 5119,
      "AR": 5120,
      "De": 5121,
      "Ing": 5122,
      "Qu": 5123,
      "Sub": 5124,
      "ior": 5125,
      "uge": 5126,
      "inations": 5127,
      "heart": 5128,
      "Ġfa": 5129,
      "ompl": 5130,
      "Ġrect": 5131,
      "ĠTogether": 5132,
      "ilos": 5133,
      "ĠIdentify": 5134,
      "Ġvict": 5135,
      "ĠCertain": 5136,
      "ĠHave": 5137,
      "ĠðŁĮħ": 5138,
      "Ġcompound": 5139,
      "Ġweak": 5140,
      "ĠNo": 5141,
      "Ġtechnique": 5142,
      "Ġ32": 5143,
      "egu": 5144,
      "Ġshel": 5145,
      "Ġapproaches": 5146,
      "Ġfinally": 5147,
      "Ġgenerally": 5148,
      "ðŁĶ¥": 5149,
      "Ġphysics": 5150,
      "Ġboard": 5151,
      "Ġoperating": 5152,
      "Ġbias": 5153,
      "Ġcleaner": 5154,
      "aluate": 5155,
      "Ġbegins": 5156,
      "Ġcooked": 5157,
      "Ġsessions": 5158,
      "Ġdamage": 5159,
      "Ġdialogue": 5160,
      "ĠUtilize": 5161,
      "Ingredients": 5162,
      "pose": 5163,
      "ŀï¸ı": 5164,
      "Ġsample": 5165,
      "Ġcrypt": 5166,
      "ashing": 5167,
      "Ġthird": 5168,
      "ils": 5169,
      "urous": 5170,
      "Ġvulner": 5171,
      "istant": 5172,
      "antic": 5173,
      "Ġspark": 5174,
      "Ġplaces": 5175,
      "Ġshimm": 5176,
      "Ġincent": 5177,
      "ipment": 5178,
      "ĠĠĠĠĠĠĠĠ": 5179,
      "ĠGe": 5180,
      "Ġevolution": 5181,
      "Ġrecords": 5182,
      "Ġaccompl": 5183,
      "Ġhighlights": 5184,
      "Ġhandling": 5185,
      "ĠConnect": 5186,
      "Ġfacts": 5187,
      "Ġenhanced": 5188,
      "ĠAnaly": 5189,
      "Ġconfidence": 5190,
      "Ġdemoc": 5191,
      "Ġdepending": 5192,
      "ĠSpanish": 5193,
      "Ġdirection": 5194,
      "ĠCloud": 5195,
      "Ġschools": 5196,
      "Ġlandscap": 5197,
      "Ġversion": 5198,
      "board": 5199,
      "Ġchopped": 5200,
      "Ġdescribes": 5201,
      "Ġmountain": 5202,
      "Ġmonths": 5203,
      "Ġcredit": 5204,
      "Ġenchanting": 5205,
      "ĠRobo": 5206,
      "breaking": 5207,
      "Ġheavy": 5208,
      "Ġincorporating": 5209,
      "Ġtranslation": 5210,
      "agonist": 5211,
      "Ġrevenue": 5212,
      "//": 5213,
      "cks": 5214,
      "mission": 5215,
      "Ġtrou": 5216,
      "Ġaw": 5217,
      "Ġsaving": 5218,
      "itary": 5219,
      "Ġlot": 5220,
      "illet": 5221,
      "Ġyet": 5222,
      "ĠSarah": 5223,
      "Ġintric": 5224,
      "Ġcomparison": 5225,
      "ously": 5226,
      "Ġshining": 5227,
      "Ġsoil": 5228,
      "ĠInformation": 5229,
      "phony": 5230,
      "Ġtransfer": 5231,
      "ension": 5232,
      "Ġskillet": 5233,
      "Instructions": 5234,
      "Ġsupporting": 5235,
      "ritious": 5236,
      "Ġclasses": 5237,
      "yme": 5238,
      "Ġsmallest": 5239,
      "Ġmatch": 5240,
      "Ġdepends": 5241,
      "âĢįâĻĢï¸ı": 5242,
      "lusive": 5243,
      "Ġfruit": 5244,
      "Ġmoral": 5245,
      "Ġcompetitive": 5246,
      "Ġdocuments": 5247,
      "Ġdatabases": 5248,
      "Ġbattle": 5249,
      "Ġstatistical": 5250,
      "Ġconvenience": 5251,
      "Ġcollege": 5252,
      "ĠEducation": 5253,
      "Ġclarity": 5254,
      "ĠCreating": 5255,
      "Feel": 5256,
      "].": 5257,
      "ĠÃ": 5258,
      "eria": 5259,
      "alax": 5260,
      "Ġpages": 5261,
      "ouns": 5262,
      "level": 5263,
      "Ġlush": 5264,
      "idential": 5265,
      "raction": 5266,
      "Ġheld": 5267,
      "Ġorange": 5268,
      "sem": 5269,
      "ĠHy": 5270,
      "ĠHigh": 5271,
      "ĠWork": 5272,
      "ĠDNA": 5273,
      "Ġprefer": 5274,
      "Ġadvers": 5275,
      "ĠVal": 5276,
      "Ġglass": 5277,
      "Ġinstance": 5278,
      "Ġinstall": 5279,
      "Ġcontributions": 5280,
      "Ġexcited": 5281,
      "Ġembark": 5282,
      "Ġtrip": 5283,
      "Ġpredictive": 5284,
      "Ġpollutants": 5285,
      "ĠðŁĽįï¸ı": 5286,
      "Ġadvantage": 5287,
      "ĠContent": 5288,
      "Ġcircum": 5289,
      "Ġaims": 5290,
      "Ġdistribution": 5291,
      "Ġhighlighting": 5292,
      "Ġtransparency": 5293,
      "Ġprepared": 5294,
      "Ġexperienced": 5295,
      "Ġtomatoes": 5296,
      "ĠCanada": 5297,
      "Node": 5298,
      "TP": 5299,
      "che": 5300,
      "found": 5301,
      "ugg": 5302,
      "where": 5303,
      "Ġfight": 5304,
      "Ġwr": 5305,
      "Ġwitness": 5306,
      "Ġmaster": 5307,
      "Ġdanger": 5308,
      "Ġreached": 5309,
      "Ġhalf": 5310,
      "Ġnorm": 5311,
      "Ġstim": 5312,
      "ĠEl": 5313,
      "ĠOp": 5314,
      "ĠOur": 5315,
      "ĠLa": 5316,
      "Ġtracking": 5317,
      "ĠNot": 5318,
      "Ġmanager": 5319,
      "Ġdecor": 5320,
      "Ġreduces": 5321,
      "Ġcoop": 5322,
      "Ġrefres": 5323,
      "Ġretrie": 5324,
      "Ġjustice": 5325,
      "Ġbrave": 5326,
      "Ġstaying": 5327,
      "ĠWeb": 5328,
      "Ġadventurous": 5329,
      "Ġgratitude": 5330,
      "Ġvegetable": 5331,
      "Ġnavigation": 5332,
      "Ġupdated": 5333,
      "Ġmission": 5334,
      "Ġreceive": 5335,
      "Ġdescribed": 5336,
      "Ġuncertain": 5337,
      "Ġparticipants": 5338,
      "Ġrelaxation": 5339,
      "holders": 5340,
      "ield": 5341,
      "Ġsmartphone": 5342,
      "ĠBritish": 5343,
      "Customer": 5344,
      "Se": 5345,
      "aff": 5346,
      "ipped": 5347,
      "kay": 5348,
      "list": 5349,
      "ued": 5350,
      "ye": 5351,
      "ķï¸ı": 5352,
      "Ġast": 5353,
      "Ġcamer": 5354,
      "Ġbott": 5355,
      "icy": 5356,
      "Ġrepl": 5357,
      "Ġreput": 5358,
      "oting": 5359,
      "ĠSun": 5360,
      "umns": 5361,
      "Ġalien": 5362,
      "Ġneighb": 5363,
      "ĠðŁĮ¬ï¸ı": 5364,
      "Ġadds": 5365,
      "ĠBig": 5366,
      "ĠDis": 5367,
      "ĠRet": 5368,
      "ĠRel": 5369,
      "Ġapple": 5370,
      "Ġstrings": 5371,
      "Ġtechnical": 5372,
      "Ġtweet": 5373,
      "Ġadded": 5374,
      "Ġskin": 5375,
      "Ġdiscount": 5376,
      "ĠProcessing": 5377,
      "Ġstudies": 5378,
      "Ġfunctionality": 5379,
      "ĠðŁĲ±": 5380,
      "Ġbreaks": 5381,
      "Ġresponsibilities": 5382,
      "Ġmoves": 5383,
      "Ġmention": 5384,
      "Ġpattern": 5385,
      "Ġcentury": 5386,
      "Ġgenu": 5387,
      "ĠIndust": 5388,
      "placement": 5389,
      "Ġregularly": 5390,
      "Ġguidelines": 5391,
      "Ġheadline": 5392,
      "Ġmissing": 5393,
      "Ġreceived": 5394,
      "Ġemergency": 5395,
      "Ġdynamics": 5396,
      "Ġflexible": 5397,
      "Ġuncover": 5398,
      "ĠSmith": 5399,
      "Ġindependence": 5400,
      "Ġagriculture": 5401,
      "ltimately": 5402,
      "Ġsandwich": 5403,
      "Cl": 5404,
      "\\[": 5405,
      "backs": 5406,
      "flow": 5407,
      "Ġcopy": 5408,
      "isis": 5409,
      "Ġwings": 5410,
      "lean": 5411,
      "Ġmen": 5412,
      "Ġdate": 5413,
      "Ġhomes": 5414,
      "Ġnational": 5415,
      "ĠSw": 5416,
      "ĠService": 5417,
      "Ġalone": 5418,
      "ĠBat": 5419,
      "ĠFind": 5420,
      "ĠGu": 5421,
      "ĠGreen": 5422,
      "Ġclim": 5423,
      "Ġtrain": 5424,
      "Ġlisten": 5425,
      "Ġparties": 5426,
      "Ġsupportive": 5427,
      "ĠProf": 5428,
      "ĠðŁı¥": 5429,
      "ready": 5430,
      "Ġpractical": 5431,
      "Ġsalad": 5432,
      "ĠPlant": 5433,
      "ropical": 5434,
      "Ġsymphony": 5435,
      "Ġmotion": 5436,
      "Ġexplores": 5437,
      "Ġstructured": 5438,
      "Ġscientist": 5439,
      "Ġcatch": 5440,
      "Ġprinc": 5441,
      "Ġnutritious": 5442,
      "Ġminimum": 5443,
      "Ġcollected": 5444,
      "Ġprivate": 5445,
      "Ġaccurately": 5446,
      "Ġdatasets": 5447,
      "Ġdefinitely": 5448,
      "Ġstruggle": 5449,
      "Ġorders": 5450,
      "ĠTwo": 5451,
      "ĠInternet": 5452,
      "Ġlinked": 5453,
      "ĠGlobal": 5454,
      "ĠCertainly": 5455,
      "('": 5456,
      "60": 5457,
      "80": 5458,
      "AN": 5459,
      "nership": 5460,
      "oking": 5461,
      "tered": 5462,
      "ĉĉ": 5463,
      "heit": 5464,
      "Ġcel": 5465,
      "orrect": 5466,
      "Ġokay": 5467,
      "Ġfit": 5468,
      "Ġwise": 5469,
      "Ġmi": 5470,
      "Ġmal": 5471,
      "Ġbacter": 5472,
      "arp": 5473,
      "Ġdou": 5474,
      "Ġdry": 5475,
      "Ġhoney": 5476,
      "raw": 5477,
      "Ġproactive": 5478,
      "ifies": 5479,
      "ades": 5480,
      "ĠCelsius": 5481,
      "ĠEvery": 5482,
      "osition": 5483,
      "ĠMicro": 5484,
      "ĠList": 5485,
      "ĠLast": 5486,
      "Ġ200": 5487,
      "ĠGr": 5488,
      "Ġdesire": 5489,
      "Ġanyone": 5490,
      "Ġimpacting": 5491,
      "ordinary": 5492,
      "Ġremains": 5493,
      "Ġeveryday": 5494,
      "Ġaccessibility": 5495,
      "Ġfinance": 5496,
      "Ġcountless": 5497,
      "Ġgreatest": 5498,
      "Ġreader": 5499,
      "ĠUnion": 5500,
      "Ġstronger": 5501,
      "ðŁĴ°": 5502,
      "Ġ//": 5503,
      "ĠEngine": 5504,
      "ĠðŁĽłï¸ı": 5505,
      "ĠAmerica": 5506,
      "Ġconversations": 5507,
      "Ġoccas": 5508,
      "Ġmajestic": 5509,
      "Ġextraordinary": 5510,
      "Ġbatter": 5511,
      "Ġradius": 5512,
      "ĠFinally": 5513,
      "Ġtimeline": 5514,
      "Ġindependent": 5515,
      "ĠMonit": 5516,
      "Ġshowcase": 5517,
      "Ġhabitats": 5518,
      "poons": 5519,
      "Imagine": 5520,
      "Ġhoriz": 5521,
      "Ġfulfill": 5522,
      "Ġprobability": 5523,
      "Ġclaim": 5524,
      "Ġidi": 5525,
      "Hello": 5526,
      "mic": 5527,
      "oors": 5528,
      "son": 5529,
      "uff": 5530,
      "Ġfox": 5531,
      "anch": 5532,
      "Ġgift": 5533,
      "ute": 5534,
      "uries": 5535,
      "ĠCSS": 5536,
      "rix": 5537,
      "ocking": 5538,
      "Ġspam": 5539,
      "ĠMil": 5540,
      "Ġquiet": 5541,
      "Ġcustomize": 5542,
      "Ġactively": 5543,
      "Ġorganizing": 5544,
      "Ġâī": 5545,
      "Ġprotagonist": 5546,
      "Ġcontributes": 5547,
      "Ġ</": 5548,
      "renheit": 5549,
      "Ġprotecting": 5550,
      "ðŁĴ¼": 5551,
      "lette": 5552,
      "Ġsafegu": 5553,
      "Ġsituations": 5554,
      "appy": 5555,
      "Ġwonders": 5556,
      "ahrenheit": 5557,
      "melette": 5558,
      "Ġfosters": 5559,
      "Ġdegree": 5560,
      "Ġvisitors": 5561,
      "ĠSmart": 5562,
      "Ġappreciation": 5563,
      "Ġexpected": 5564,
      "Ġcutting": 5565,
      "ĠRegularly": 5566,
      "ĠAutom": 5567,
      "iosity": 5568,
      "Ġlibrary": 5569,
      "ĠSalt": 5570,
      "Ġexcellent": 5571,
      "orestation": 5572,
      "Ġexpertise": 5573,
      "Ġintricate": 5574,
      "SE": 5575,
      "met": 5576,
      "rition": 5577,
      "Ġawe": 5578,
      "entral": 5579,
      "ushing": 5580,
      "ĠðŁª": 5581,
      "urrent": 5582,
      "ĠSustain": 5583,
      "ĠSEO": 5584,
      "que": 5585,
      "ado": 5586,
      "Ġintense": 5587,
      "ĠðŁĮ¼": 5588,
      "acing": 5589,
      "Ġdeforest": 5590,
      "ĠMet": 5591,
      "Ġtea": 5592,
      "ĠBaby": 5593,
      "formance": 5594,
      "ĠFl": 5595,
      "Ġclose": 5596,
      "ĠNor": 5597,
      "ĠNational": 5598,
      "ryption": 5599,
      "soft": 5600,
      "Ġworkers": 5601,
      "Ġartist": 5602,
      "Ġfeels": 5603,
      "Ġserving": 5604,
      "ðŁĮ³": 5605,
      "Ġdeliver": 5606,
      "ĠVirtual": 5607,
      "Ġpresents": 5608,
      "Ġvisibility": 5609,
      "Ġdistant": 5610,
      "Ġstores": 5611,
      "ðŁĩ·": 5612,
      "ĠPlay": 5613,
      "Ġmovies": 5614,
      "Ġstands": 5615,
      "Ġmusc": 5616,
      "Ġempower": 5617,
      "Ġcleaning": 5618,
      "Ġharmful": 5619,
      "Ġhardware": 5620,
      "Ġsector": 5621,
      "Ì¦Ì¦Ì¦Ì¦": 5622,
      "ĠCheck": 5623,
      "Ġmindfulness": 5624,
      "Ġappliances": 5625,
      "ĠExperience": 5626,
      "ĠVisual": 5627,
      "ĠEnvironmental": 5628,
      "aj": 5629,
      "ners": 5630,
      "Ġcrow": 5631,
      "Ġpal": 5632,
      "Ġpsych": 5633,
      "anks": 5634,
      "Ġwider": 5635,
      "Ġmut": 5636,
      "ctic": 5637,
      "Ġreb": 5638,
      "rays": 5639,
      "Ġstar": 5640,
      "Ġstri": 5641,
      "Ġstop": 5642,
      "ateful": 5643,
      "ĠSk": 5644,
      "ĠSur": 5645,
      "Ġcoming": 5646,
      "Ġvit": 5647,
      "Ġvan": 5648,
      "Ġusually": 5649,
      "odes": 5650,
      "Ġalready": 5651,
      "Ġworth": 5652,
      "Ġspr": 5653,
      "Ġspot": 5654,
      "Ġrice": 5655,
      "output": 5656,
      "ĠðŁĵĸ": 5657,
      "Ġrecently": 5658,
      "ifying": 5659,
      "ĠAdv": 5660,
      "Ġideal": 5661,
      "Ġstorytelling": 5662,
      "ups": 5663,
      "ompass": 5664,
      "ĠSoft": 5665,
      "Ġbirth": 5666,
      "Ġstrengths": 5667,
      "ĠIncorpor": 5668,
      "ĠDevelopment": 5669,
      "Ġgroundbreaking": 5670,
      "ĠPhys": 5671,
      "Ġagricultural": 5672,
      "Ġpunct": 5673,
      "Ġtranquility": 5674,
      "Ġcitiz": 5675,
      "Ġshimmering": 5676,
      "ĠâīĪ": 5677,
      "Ġdeforestation": 5678,
      "co": 5679,
      "cious": 5680,
      "year": 5681,
      "hered": 5682,
      "eral": 5683,
      "erge": 5684,
      "Ġsle": 5685,
      "Ġcasting": 5686,
      "Ġomelette": 5687,
      "Ġtom": 5688,
      "Ġmes": 5689,
      "Ġlights": 5690,
      "ĠSam": 5691,
      "Ġneut": 5692,
      "osure": 5693,
      "Ġtech": 5694,
      "ĠDep": 5695,
      "ĠGather": 5696,
      "berry": 5697,
      "Ġperp": 5698,
      "Ġknowing": 5699,
      "Ġcolon": 5700,
      "Ġgoes": 5701,
      "Ġdevelopers": 5702,
      "Ġblend": 5703,
      "rict": 5704,
      "Ġequality": 5705,
      "Ġequipment": 5706,
      "Ġengines": 5707,
      "Ġdiscrim": 5708,
      "Ġpurs": 5709,
      "Ġinfect": 5710,
      "cules": 5711,
      "Ġedge": 5712,
      "Ġconnectivity": 5713,
      "Ġmember": 5714,
      "Ġbravery": 5715,
      "ĠðŁĴª": 5716,
      "Ġembarked": 5717,
      "Ġchanged": 5718,
      "Ġoptimizing": 5719,
      "Ġspeaking": 5720,
      "Ġshows": 5721,
      "Ġmusical": 5722,
      "denly": 5723,
      "Ġmystery": 5724,
      "Ġfallacy": 5725,
      "Ġharmon": 5726,
      "ĠTraining": 5727,
      "Ġpassionate": 5728,
      "Ġdivis": 5729,
      "Ġcampaigns": 5730,
      "ĠPersonalized": 5731,
      "annels": 5732,
      "Ġrewards": 5733,
      "Ġbags": 5734,
      "Ġcuisine": 5735,
      "Ġlandscapes": 5736,
      "Ġcooperation": 5737,
      "18": 5738,
      "If": 5739,
      "Output": 5740,
      "button": 5741,
      "ein": 5742,
      "fall": 5743,
      "tr": 5744,
      "tt": 5745,
      "wer": 5746,
      "Īï¸ı": 5747,
      "Ġaid": 5748,
      "inates": 5749,
      "enn": 5750,
      "atically": 5751,
      "orking": 5752,
      "Ġgender": 5753,
      "Ġstood": 5754,
      "Ġstake": 5755,
      "ppers": 5756,
      "ores": 5757,
      "ester": 5758,
      "estial": 5759,
      "Ġimperative": 5760,
      "ĠEnt": 5761,
      "Ġtele": 5762,
      "Ġteaching": 5763,
      "Ġsharp": 5764,
      "ĠDig": 5765,
      "Ġmeets": 5766,
      "Ġquote": 5767,
      "bert": 5768,
      "xture": 5769,
      "Ġnewfound": 5770,
      "Ġcolumns": 5771,
      "ĠJan": 5772,
      "Ġdelicate": 5773,
      "Ġbuilt": 5774,
      "enefits": 5775,
      "Ġconcern": 5776,
      "Ġencompass": 5777,
      "ployee": 5778,
      "author": 5779,
      "elligent": 5780,
      "Ġcharacterized": 5781,
      "Ġrealm": 5782,
      "ðŁĩ³": 5783,
      "fficiency": 5784,
      "Ġjobs": 5785,
      "Ġfully": 5786,
      "Ġfoster": 5787,
      "ught": 5788,
      "Ġposts": 5789,
      "Ġbreathing": 5790,
      "Ġbanana": 5791,
      "Ġwonderful": 5792,
      "Ġstatus": 5793,
      "Ġdemonstrate": 5794,
      "Ġexpectations": 5795,
      "Ġliterature": 5796,
      "Ġbackgrounds": 5797,
      "Ġauthentic": 5798,
      "Ġkingdom": 5799,
      "Ġleveraging": 5800,
      "Ġodd": 5801,
      "ĠEstablish": 5802,
      "ĠðŁıĥâĢįâĻĤï¸ı": 5803,
      "Ġmixture": 5804,
      "Col": 5805,
      "Un": 5806,
      "hop": 5807,
      "sis": 5808,
      "top": 5809,
      "iny": 5810,
      "reg": 5811,
      "Ġcast": 5812,
      "Ġrein": 5813,
      "Ġgently": 5814,
      "Ġyellow": 5815,
      "ĠII": 5816,
      "Ġstack": 5817,
      "urric": 5818,
      "ials": 5819,
      "ĠGener": 5820,
      "Ġdisapp": 5821,
      "Ġtruth": 5822,
      "Ġupcoming": 5823,
      "Ġdecimal": 5824,
      "Ġproviders": 5825,
      "Ġmedicine": 5826,
      "Ġregions": 5827,
      "Ġremov": 5828,
      "Ġpassive": 5829,
      "ĠâĿ": 5830,
      "Ġenter": 5831,
      "Ġcorresp": 5832,
      "Ġgenerated": 5833,
      "Ġteamwork": 5834,
      "Ġcombined": 5835,
      "Ġelim": 5836,
      "Ġwanted": 5837,
      "Ġmessages": 5838,
      "ĠIncre": 5839,
      "ĠCompany": 5840,
      "ĠPrice": 5841,
      "Ġprecision": 5842,
      "ĠInstead": 5843,
      "Ġinfluencers": 5844,
      "Ġholds": 5845,
      "Ġangle": 5846,
      "izza": 5847,
      "Ġmolecules": 5848,
      "NNs": 5849,
      "Ġmammals": 5850,
      "Ġrefreshing": 5851,
      "Ġpursue": 5852,
      "Or": 5853,
      "lam": 5854,
      "sum": 5855,
      "wide": 5856,
      "âľ": 5857,
      "Ġ&": 5858,
      "ret": 5859,
      "Ġfrust": 5860,
      "Ġpuzz": 5861,
      "Ġecho": 5862,
      "Ġhous": 5863,
      "Ġhob": 5864,
      "oling": 5865,
      "Ġforget": 5866,
      "stitut": 5867,
      "ĠAP": 5868,
      "agram": 5869,
      "verty": 5870,
      "Ġrates": 5871,
      "Ġacqu": 5872,
      "Ġlearns": 5873,
      "ĠJul": 5874,
      "Ġreligious": 5875,
      "Ġbutton": 5876,
      "Ġactual": 5877,
      "Ġpoverty": 5878,
      "Ġblood": 5879,
      "Ġcaut": 5880,
      "Ġregard": 5881,
      "ĠðŁıĶï¸ı": 5882,
      "Ġimprovements": 5883,
      "Ġâľ": 5884,
      "Ġinstruction": 5885,
      "ĠðŁĲ¶": 5886,
      "Ġfiles": 5887,
      "Ġbreaking": 5888,
      "airs": 5889,
      "Ġdefine": 5890,
      "Ġenjoyed": 5891,
      "ĠðŁĽĴ": 5892,
      "onyms": 5893,
      "Ġupdate": 5894,
      "Ġturning": 5895,
      "ĠAddress": 5896,
      "ĠPhot": 5897,
      "lara": 5898,
      "Ġturned": 5899,
      "Ġdebate": 5900,
      "Ġvacc": 5901,
      "Ġvacation": 5902,
      "ĠDiscord": 5903,
      "Ġsliced": 5904,
      "Ġstyles": 5905,
      "Ġpowers": 5906,
      "Using": 5907,
      "ĠOptimization": 5908,
      "Ġfamilies": 5909,
      "ĠBuilding": 5910,
      "Ġcube": 5911,
      "Ġdecrease": 5912,
      "ilosoph": 5913,
      "Ġaccomplish": 5914,
      "Ġmesmer": 5915,
      "Data": 5916,
      "chen": 5917,
      "hab": 5918,
      "nam": 5919,
      "Ġign": 5920,
      "Ġtang": 5921,
      "Ġsem": 5922,
      "Ġcraft": 5923,
      "Ġmark": 5924,
      "Ġbell": 5925,
      "Ġbold": 5926,
      "arav": 5927,
      "Ġdining": 5928,
      "Ġreward": 5929,
      "Ġreplace": 5930,
      "usion": 5931,
      "Ġlon": 5932,
      "ĠTable": 5933,
      "Ġnurt": 5934,
      "sec": 5935,
      "advantages": 5936,
      "Ġchart": 5937,
      "ĠEfficiency": 5938,
      "ĠMal": 5939,
      "pervised": 5940,
      "Ġshop": 5941,
      "ĠDel": 5942,
      "ĠRen": 5943,
      "Ġunfor": 5944,
      "Ġseeds": 5945,
      "Ġquad": 5946,
      "aph": 5947,
      "Ġtraditions": 5948,
      "berries": 5949,
      "Ġsoothing": 5950,
      "Ġdespite": 5951,
      "Ġamb": 5952,
      "Ġraise": 5953,
      "Ġsettings": 5954,
      "Ġcouldn": 5955,
      "Ġrepetitive": 5956,
      "Ġbrings": 5957,
      "Ġbridge": 5958,
      "ĠðŁį³": 5959,
      "Ġorganize": 5960,
      "Ġconcent": 5961,
      "Ġinvolving": 5962,
      "Ġcuriosity": 5963,
      "Ġreaders": 5964,
      "Ġexclusive": 5965,
      "Ġcapable": 5966,
      "azz": 5967,
      "Ġgenre": 5968,
      "Ġemotion": 5969,
      "Ġhimself": 5970,
      "Ġdiscusses": 5971,
      "Ġconstruction": 5972,
      "Ġmarine": 5973,
      "Ġdoesn": 5974,
      "Ġbreakfast": 5975,
      "Ġadvancement": 5976,
      "gestion": 5977,
      "Ġsimplified": 5978,
      "Ġdescribing": 5979,
      "Ġsurrounding": 5980,
      "Ġsecret": 5981,
      "Ġappearance": 5982,
      "forcement": 5983,
      "ĠPeople": 5984,
      "Ġscalability": 5985,
      "Ġventured": 5986,
      "Ġreasoning": 5987,
      "Ġanticipation": 5988,
      "Ġpivotal": 5989,
      "ĠMicrosoft": 5990,
      "Ġtomorrow": 5991,
      "authorized": 5992,
      "17": 5993,
      "case": 5994,
      "count": 5995,
      "cons": 5996,
      "eed": 5997,
      "gent": 5998,
      "iences": 5999,
      "¨âĢį": 6000,
      "âļ": 6001,
      "ĸï¸ı": 6002,
      "Ļï¸ı": 6003,
      "Ġcater": 6004,
      "Ġcrop": 6005,
      "Ġwand": 6006,
      "icks": 6007,
      "veled": 6008,
      "Ġliqu": 6009,
      "ĠTrue": 6010,
      "ĠAust": 6011,
      "ĠSouth": 6012,
      "Ġcongestion": 6013,
      "Ġexternal": 6014,
      "ĠPark": 6015,
      "Ġneur": 6016,
      "Ġspin": 6017,
      "ĠIts": 6018,
      "ĠBan": 6019,
      "ĠBenefits": 6020,
      "ĠThree": 6021,
      "Ġresolution": 6022,
      "ĠFurthermore": 6023,
      "Ġclient": 6024,
      "Ġkil": 6025,
      "Ġdisplacement": 6026,
      "Ġroots": 6027,
      "Ġevolving": 6028,
      "Ġherself": 6029,
      "ireless": 6030,
      "Ġreliance": 6031,
      "Ġlistening": 6032,
      "Ġequations": 6033,
      "Ġmeters": 6034,
      "ðŁĮĲ": 6035,
      "ðŁĮŀ": 6036,
      "Ġsurpr": 6037,
      "ĠChange": 6038,
      "ĠEnh": 6039,
      "Ġsunny": 6040,
      "ĠðŁĲ¾": 6041,
      "Ġenjoying": 6042,
      "Ġlogo": 6043,
      "Ġrobotics": 6044,
      "Ġdiscussions": 6045,
      "Ġcollaborate": 6046,
      "Ġslope": 6047,
      "ðŁĳ©âĢį": 6048,
      "Ġachievements": 6049,
      "Char": 6050,
      "Ġillum": 6051,
      "Ġillust": 6052,
      "load": 6053,
      "Ġcelebrate": 6054,
      "Ġtablespoons": 6055,
      "Ġboundaries": 6056,
      "Ġcompletely": 6057,
      "Ġapart": 6058,
      "Ġlibraries": 6059,
      "Ġrhyth": 6060,
      "Ġfantastic": 6061,
      "Ġimmersive": 6062,
      "Ġnarrative": 6063,
      "Ġgenuine": 6064,
      "ĠIncorporate": 6065,
      "99": 6066,
      "Cons": 6067,
      "Pr": 6068,
      "Res": 6069,
      "equ": 6070,
      "£ï¸ı": 6071,
      "âķ": 6072,
      "Ħï¸ı": 6073,
      "Ġarom": 6074,
      "athered": 6075,
      "Ġcin": 6076,
      "Ġcul": 6077,
      "Ġfat": 6078,
      "Ġfur": 6079,
      "Ġbad": 6080,
      "entence": 6081,
      "ola": 6082,
      "choice": 6083,
      "idst": 6084,
      "ĠAng": 6085,
      "ĠSum": 6086,
      "ĠCor": 6087,
      "result": 6088,
      "acity": 6089,
      "ĠElara": 6090,
      "ocal": 6091,
      "ĠMaking": 6092,
      "ĠRoman": 6093,
      "ĠFalse": 6094,
      "Ġunauthorized": 6095,
      "Ġacid": 6096,
      "ĠInnov": 6097,
      "Ġ+=": 6098,
      "gettable": 6099,
      "Ġprepare": 6100,
      "Ġfindings": 6101,
      "olves": 6102,
      "Ġplayful": 6103,
      "Ġretail": 6104,
      "Ġforeign": 6105,
      "Ġenduring": 6106,
      "Ġextensive": 6107,
      "Ġexpressing": 6108,
      "Ġdevast": 6109,
      "Ġparameters": 6110,
      "ĠExc": 6111,
      "Ġkeeping": 6112,
      "Ġmilitary": 6113,
      "Ġmovements": 6114,
      "Ġthrilling": 6115,
      "Ġsensors": 6116,
      "Ġobtain": 6117,
      "Change": 6118,
      "Ġconsistency": 6119,
      "Ġemerged": 6120,
      "Ġconflicts": 6121,
      "Ġcolleag": 6122,
      "Ġlabeled": 6123,
      "ĠâĪļ(": 6124,
      "ĠAvoid": 6125,
      "Ġbrowser": 6126,
      "Ġwrong": 6127,
      "Ġharmonious": 6128,
      "Ġstakeholders": 6129,
      "Ġmesmerizing": 6130,
      "(-": 6131,
      "DP": 6132,
      "cast": 6133,
      "cending": 6134,
      "date": 6135,
      "gy": 6136,
      "oT": 6137,
      "»ï¸ı": 6138,
      "Ġtag": 6139,
      "erb": 6140,
      "ero": 6141,
      "Ġcra": 6142,
      "rots": 6143,
      "Ġreaction": 6144,
      "ceans": 6145,
      "eting": 6146,
      "eless": 6147,
      "ĠAarav": 6148,
      "ifting": 6149,
      "ĠSelf": 6150,
      "umin": 6151,
      "oday": 6152,
      "Ġchance": 6153,
      "ĠPar": 6154,
      "ocolate": 6155,
      "Ġadminist": 6156,
      "Ġhaz": 6157,
      "Ġresistance": 6158,
      "Ġpercent": 6159,
      "Ġrecycling": 6160,
      "ractions": 6161,
      "onomy": 6162,
      "Ġstudying": 6163,
      "Ġbuying": 6164,
      "archy": 6165,
      "Ġexpresses": 6166,
      "Ġsolid": 6167,
      "ĠðŁĴ°": 6168,
      "Ġinternal": 6169,
      "Ġelectr": 6170,
      "Ġoperational": 6171,
      "Ġinterested": 6172,
      "Ġaccounts": 6173,
      "Ġmessaging": 6174,
      "Ġcollective": 6175,
      "ĠContinu": 6176,
      "Ġrainforest": 6177,
      "Ġresilient": 6178,
      "Ġsorting": 6179,
      "ĠImplementing": 6180,
      "Ġbanking": 6181,
      "ĠQuant": 6182,
      "Ġimagination": 6183,
      "Ġproteins": 6184,
      "Ġcontinuously": 6185,
      "ĠDefine": 6186,
      "Ġcompleted": 6187,
      "Ġcherished": 6188,
      "Ġslices": 6189,
      "Ġmistakes": 6190,
      "Ġwhispers": 6191,
      "Ġreusable": 6192,
      "allel": 6193,
      "Ġadversity": 6194,
      "Ġbacteria": 6195,
      "Ġunforgettable": 6196,
      "Al": 6197,
      "After": 6198,
      "bul": 6199,
      "well": 6200,
      "¤ï¸ı": 6201,
      "ĠÂ": 6202,
      "Ġath": 6203,
      "rew": 6204,
      "Ġselling": 6205,
      "oria": 6206,
      "inger": 6207,
      "Ġoven": 6208,
      "Ġfro": 6209,
      "Ġfats": 6210,
      "Ġbank": 6211,
      "asy": 6212,
      "uses": 6213,
      "Ġlies": 6214,
      "eth": 6215,
      "Ġstaff": 6216,
      "Ġproced": 6217,
      "uling": 6218,
      "Ġasp": 6219,
      "quir": 6220,
      "Ġviol": 6221,
      "Ġchronic": 6222,
      "Ġspelling": 6223,
      "Ġrat": 6224,
      "Ġadm": 6225,
      "index": 6226,
      "ĠOut": 6227,
      "ĠLife": 6228,
      "Ġresolve": 6229,
      "Ġunn": 6230,
      "Ġunity": 6231,
      "Ġdeclar": 6232,
      "Ġworked": 6233,
      "nesses": 6234,
      "Ġrab": 6235,
      "onding": 6236,
      "Ġserved": 6237,
      "Ġengaged": 6238,
      "Ġelection": 6239,
      "Ġpreserving": 6240,
      "ĠTools": 6241,
      "ðŁĶĴ": 6242,
      "Ġobjectives": 6243,
      "Ġachieved": 6244,
      "ĠðŁĩ®": 6245,
      "Ġopening": 6246,
      "Ġcaptures": 6247,
      "Ġlegacy": 6248,
      "Ġcurrently": 6249,
      "Ġpurchases": 6250,
      "Ġcompanions": 6251,
      "Ġintroduction": 6252,
      "instein": 6253,
      "Ġnearby": 6254,
      "Ġaligns": 6255,
      "Ġknight": 6256,
      "Ġseparate": 6257,
      "nerships": 6258,
      "Ġhorizon": 6259,
      "Ġpunctuation": 6260,
      "Ġquadratic": 6261,
      "Fin": 6262,
      "Ins": 6263,
      "John": 6264,
      "Sc": 6265,
      "][": 6266,
      "ae": 6267,
      "tra": 6268,
      "Ġrom": 6269,
      "Ġtropical": 6270,
      "Ġsizes": 6271,
      "itivity": 6272,
      "Ġfiction": 6273,
      "Ġmarked": 6274,
      "ications": 6275,
      "Ġthick": 6276,
      "Ġisland": 6277,
      "iday": 6278,
      "urpose": 6279,
      "ĠAir": 6280,
      "ĠSolar": 6281,
      "Ġexcess": 6282,
      "ecurity": 6283,
      "Ġchannels": 6284,
      "acon": 6285,
      "ĠElectric": 6286,
      "pty": 6287,
      "Ġspl": 6288,
      "ĠMount": 6289,
      "ffe": 6290,
      "ĠBi": 6291,
      "ĠDet": 6292,
      "ĠObject": 6293,
      "ĠLook": 6294,
      "Ġquaint": 6295,
      "ĠGree": 6296,
      "nowledge": 6297,
      "obe": 6298,
      "Ġpron": 6299,
      "Ġreliability": 6300,
      "Ġbusy": 6301,
      "Ġ40": 6302,
      "Ġeleg": 6303,
      "inese": 6304,
      "ĠðŁı¡": 6305,
      "ĠðŁıŀï¸ı": 6306,
      "Ġattend": 6307,
      "eek": 6308,
      "Ġtrend": 6309,
      "Ġlighting": 6310,
      "Ġenhances": 6311,
      "Ġstored": 6312,
      "ĠPlace": 6313,
      "Ġoperate": 6314,
      "ĠDeep": 6315,
      "ðŁĵĪ": 6316,
      "Ġvalued": 6317,
      "Ġcollaborative": 6318,
      "Ġflower": 6319,
      "Ġbask": 6320,
      "Ġphoto": 6321,
      "ĠControl": 6322,
      "Ġtales": 6323,
      "Ġmelody": 6324,
      "Ġcommitted": 6325,
      "Ġfollowed": 6326,
      "Ġpaths": 6327,
      "Ġencounter": 6328,
      "Ġincreasingly": 6329,
      "Ġburning": 6330,
      "Ġexpensive": 6331,
      "ictionary": 6332,
      "Ġetc": 6333,
      "Ġhonest": 6334,
      "Ġinequality": 6335,
      "Phone": 6336,
      "Select": 6337,
      "Ġcelestial": 6338,
      "Ġregardless": 6339,
      "Rec": 6340,
      "aper": 6341,
      "aze": 6342,
      "lor": 6343,
      "lining": 6344,
      "Ġri": 6345,
      "ato": 6346,
      "Ġpick": 6347,
      "used": 6348,
      "ceed": 6349,
      "Ġlooks": 6350,
      "Ġnouns": 6351,
      "Ġgives": 6352,
      "igration": 6353,
      "ĠSaf": 6354,
      "Ġconver": 6355,
      "ĠCell": 6356,
      "ĠðŁĮ¡ï¸ı": 6357,
      "Ġrivers": 6358,
      "ĠMin": 6359,
      "ĠMars": 6360,
      "ĠBre": 6361,
      "ĠLim": 6362,
      "ĠLight": 6363,
      "ĠFace": 6364,
      "ĠFahrenheit": 6365,
      "Ġsegment": 6366,
      "uality": 6367,
      "Ġrose": 6368,
      "Ġuseful": 6369,
      "Ġnotes": 6370,
      "Ġrelat": 6371,
      "Ġrace": 6372,
      "hatbot": 6373,
      "ucose": 6374,
      "ðŁĮĬ": 6375,
      "Ġcorpor": 6376,
      "ĠConf": 6377,
      "Ġlocations": 6378,
      "Ġcalculated": 6379,
      "Ġtestament": 6380,
      "Ġcombat": 6381,
      "ĠAlong": 6382,
      "Ġserious": 6383,
      "Ġera": 6384,
      "Ġaccountability": 6385,
      "Ġpasta": 6386,
      "Ġnuts": 6387,
      "Ġengineer": 6388,
      "Ġvehicle": 6389,
      "urable": 6390,
      "Ġmotivation": 6391,
      "Ġdestruction": 6392,
      "Ġdelivering": 6393,
      "Ġalternatives": 6394,
      "Ġdivide": 6395,
      "Ġindicates": 6396,
      "Ġyogurt": 6397,
      "Ġdrawing": 6398,
      "Ġwatching": 6399,
      "ĠNeural": 6400,
      "Ġmultipl": 6401,
      "Ġlimitations": 6402,
      "Ġinventory": 6403,
      "ĠIntegration": 6404,
      "Ġdivided": 6405,
      "Ġdescriptive": 6406,
      "Ġnuclear": 6407,
      "Ġbeliefs": 6408,
      "Ġidiom": 6409,
      "Ġvitam": 6410,
      "ĠSoftware": 6411,
      "ĠDigital": 6412,
      "90": 6413,
      "Ev": 6414,
      "Hel": 6415,
      "Moreover": 6416,
      "VID": 6417,
      "bl": 6418,
      "effective": 6419,
      "iking": 6420,
      "my": 6421,
      "ses": 6422,
      "wing": 6423,
      "}{": 6424,
      "Ġ____": 6425,
      "Ġtend": 6426,
      "Ġoceans": 6427,
      "array": 6428,
      "Ġlabor": 6429,
      "Ġloved": 6430,
      "etball": 6431,
      "ĠText": 6432,
      "oll": 6433,
      "ivative": 6434,
      "ister": 6435,
      "Ġsud": 6436,
      "Ġcha": 6437,
      "ĠPort": 6438,
      "ĠPlease": 6439,
      "Ġspo": 6440,
      "Ġspend": 6441,
      "ĠRome": 6442,
      "Ġuns": 6443,
      "ief": 6444,
      "Ġindicate": 6445,
      "ologies": 6446,
      "ĠJane": 6447,
      "Ġadvoc": 6448,
      "ĠState": 6449,
      "Ġformed": 6450,
      "Ġcave": 6451,
      "Ġdoor": 6452,
      "ĠðŁİ¯": 6453,
      "ðŁĮĮ": 6454,
      "ĠProv": 6455,
      "Ġasked": 6456,
      "Ġedit": 6457,
      "Ġcorner": 6458,
      "Ġminced": 6459,
      "rency": 6460,
      "ðŁĶ¹": 6461,
      "Ġreleased": 6462,
      "Ġinvestig": 6463,
      "ĠEngaging": 6464,
      "Ġcryst": 6465,
      "Ġnutrition": 6466,
      "Ġcups": 6467,
      "Ġcriteria": 6468,
      "ĠEncoura": 6469,
      "Ġcontaining": 6470,
      "ĠFinancial": 6471,
      "Ġsteam": 6472,
      "Ġmixed": 6473,
      "Ġsynonyms": 6474,
      "Ġdistributed": 6475,
      "Ġfrequent": 6476,
      "Ġpowder": 6477,
      "ĠPerformance": 6478,
      "ĠEuropean": 6479,
      "Ġaffordable": 6480,
      "Ġcoastal": 6481,
      "frac": 6482,
      "imeter": 6483,
      "Ġphenomenon": 6484,
      "ĠSustainable": 6485,
      "Ass": 6486,
      "dy": 6487,
      "iov": 6488,
      "inent": 6489,
      "erie": 6490,
      "Ġsix": 6491,
      "Ġfest": 6492,
      "Ġpure": 6493,
      "Ġbodies": 6494,
      "Ġhills": 6495,
      "Ġstable": 6496,
      "Ġstages": 6497,
      "ĠAud": 6498,
      "ifact": 6499,
      "Ġhes": 6500,
      "ĠCal": 6501,
      "ĠPublic": 6502,
      "ĠðŁĮł": 6503,
      "ĠEld": 6504,
      "ĠMult": 6505,
      "ĠMental": 6506,
      "Ġhair": 6507,
      "ĠDra": 6508,
      "ĠDog": 6509,
      "Ġqualities": 6510,
      "Ġapply": 6511,
      "Ġpricing": 6512,
      "Ġfinds": 6513,
      "Ġartifact": 6514,
      "Ġworldwide": 6515,
      "Ġblank": 6516,
      "Ġblocks": 6517,
      "ĠYes": 6518,
      "hess": 6519,
      "Ġclassroom": 6520,
      "Ġmarkets": 6521,
      "ĠChinese": 6522,
      "Ġcurious": 6523,
      "Ġowner": 6524,
      "Ġencryption": 6525,
      "Through": 6526,
      "ĠðŁĴ§": 6527,
      "Ġ90": 6528,
      "Ġdeeply": 6529,
      "iku": 6530,
      "Ġarrange": 6531,
      "Ġsometimes": 6532,
      "Ġemphasis": 6533,
      "Ġtalking": 6534,
      "Ġcomponent": 6535,
      "Ġcategorized": 6536,
      "Ġbreath": 6537,
      "Ġloop": 6538,
      "Ġgrew": 6539,
      "Who": 6540,
      "Ġdemonstrates": 6541,
      "ĠFeedback": 6542,
      "Ġreminder": 6543,
      "Ġenchanted": 6544,
      "Ġshowcasing": 6545,
      "Ġfootprint": 6546,
      "Ġauthentication": 6547,
      "Ġparents": 6548,
      "Ġpursuit": 6549,
      "Ġkitchen": 6550,
      "Ġteenagers": 6551,
      "ĠÃĹ": 6552,
      "Ġprinciple": 6553,
      "Ġcitizens": 6554,
      "Comm": 6555,
      "IN": 6556,
      "body": 6557,
      "px": 6558,
      "rich": 6559,
      "rative": 6560,
      "sm": 6561,
      "spect": 6562,
      "ux": 6563,
      "under": 6564,
      "Ġ```": 6565,
      "Ġsold": 6566,
      "Ġsought": 6567,
      "ittle": 6568,
      "Ġfab": 6569,
      "Ġwel": 6570,
      "Ġmo": 6571,
      "Ġdow": 6572,
      "Ġlen": 6573,
      "eling": 6574,
      "igmat": 6575,
      "ĠSleep": 6576,
      "unting": 6577,
      "ablished": 6578,
      "ĠClass": 6579,
      "ecimal": 6580,
      "ĠExt": 6581,
      "ĠEinstein": 6582,
      "ands": 6583,
      "Ġdeployment": 6584,
      "Ġempty": 6585,
      "Ġjud": 6586,
      "akers": 6587,
      "Ġthereby": 6588,
      "Ġofficial": 6589,
      "Ġimpactful": 6590,
      "Ġmetrics": 6591,
      "ewable": 6592,
      "Ġkeywords": 6593,
      "Ġperforming": 6594,
      "Ġincreases": 6595,
      "Ġstarts": 6596,
      "arsh": 6597,
      "Ġfacilities": 6598,
      "Ġelectron": 6599,
      "Ġoperation": 6600,
      "ĠEmail": 6601,
      "atsby": 6602,
      "ĠEngage": 6603,
      "Ġlogic": 6604,
      "Ġautomated": 6605,
      "ĠiPhone": 6606,
      "prov": 6607,
      "Ġwidth": 6608,
      "ðŁİµ": 6609,
      "Ġcamping": 6610,
      "Ġtransformation": 6611,
      "Ġtalk": 6612,
      "Ġturb": 6613,
      "Ġintroduce": 6614,
      "Ġintervention": 6615,
      "ĠKey": 6616,
      "Ġsmoothie": 6617,
      "Ġmechanisms": 6618,
      "Ġtransparent": 6619,
      "Ġsmartphones": 6620,
      "ĠCollaborate": 6621,
      "Ġranking": 6622,
      "chers": 6623,
      "Ł¦ðŁŁ¦ðŁŁ¦ðŁŁ¦ðŁ": 6624,
      "Ġframework": 6625,
      "ĠCOVID": 6626,
      "Ġadoption": 6627,
      "alaxy": 6628,
      "Ġcircumst": 6629,
      "ĠNorth": 6630,
      "Ġcorresponding": 6631,
      "Ġliquid": 6632,
      "Ġunnecessary": 6633,
      "40": 6634,
      "67": 6635,
      "://": 6636,
      "NLP": 6637,
      "Sp": 6638,
      "Sort": 6639,
      "])": 6640,
      "free": 6641,
      "flies": 6642,
      "gra": 6643,
      "nic": 6644,
      "off": 6645,
      "rous": 6646,
      "title": 6647,
      "oned": 6648,
      "ercial": 6649,
      "Ġsac": 6650,
      "iture": 6651,
      "Ġovers": 6652,
      "Ġpap": 6653,
      "anas": 6654,
      "Ġwon": 6655,
      "ara": 6656,
      "Ġdiced": 6657,
      "edge": 6658,
      "Ġretain": 6659,
      "Ġnodes": 6660,
      "oli": 6661,
      "ellect": 6662,
      "ĠAnt": 6663,
      "ĠCr": 6664,
      "key": 6665,
      "ĠHome": 6666,
      "hern": 6667,
      "import": 6668,
      "ĠðŁĮ¸": 6669,
      "Ġcomparing": 6670,
      "ĠMark": 6671,
      "Ġ28": 6672,
      "Ġrow": 6673,
      "Ġspecified": 6674,
      "Ġpeppers": 6675,
      "Ġphilosoph": 6676,
      "Ġdetail": 6677,
      "ĠAdapt": 6678,
      "Ġcards": 6679,
      "ĠðŁİ®": 6680,
      "Ġsupports": 6681,
      "Ġglucose": 6682,
      "ĠChall": 6683,
      "Ġcontributed": 6684,
      "Ġfaces": 6685,
      "Ġresponsive": 6686,
      "ĠðŁ§ĺ": 6687,
      "ðŁĴ§": 6688,
      "Ġshowing": 6689,
      "ĠAlice": 6690,
      "Ġcrime": 6691,
      "Ġcrisp": 6692,
      "Ġbiases": 6693,
      "ĠIndian": 6694,
      "Ġarguments": 6695,
      "ascular": 6696,
      "Ġemphasize": 6697,
      "Ġlessons": 6698,
      "Ġminimal": 6699,
      "Ġprioritizing": 6700,
      "ĊĠĠĠĠĊĠĠĠ": 6701,
      "ivalent": 6702,
      "drated": 6703,
      "ĠRecogn": 6704,
      "Ġquantity": 6705,
      "Ġtailor": 6706,
      "Ġmassive": 6707,
      "Ġpackage": 6708,
      "Ġballs": 6709,
      "Ġinfluenced": 6710,
      "Ġsurroundings": 6711,
      "Ġfraud": 6712,
      "ameter": 6713,
      "Ġtablespoon": 6714,
      "Ġrapidly": 6715,
      "ĠIntroduction": 6716,
      "ĠStrateg": 6717,
      "charge": 6718,
      "Ġreveal": 6719,
      "Ġmanipulation": 6720,
      "ĠExplore": 6721,
      "Ġshadows": 6722,
      "Ġrectangle": 6723,
      "ĠAnalytics": 6724,
      "Ġmasterp": 6725,
      "Ġstimul": 6726,
      "ĠOpen": 6727,
      "ĠFacebook": 6728,
      "Ġchaos": 6729,
      "iovascular": 6730,
      "Friend": 6731,
      "`,": 6732,
      "eks": 6733,
      "got": 6734,
      "sub": 6735,
      "wind": 6736,
      "¶âĢįâĻĤï¸ı": 6737,
      "erts": 6738,
      "Ġsq": 6739,
      "Ġsend": 6740,
      "Ġsell": 6741,
      "Ġfle": 6742,
      "lets": 6743,
      "Ġburn": 6744,
      "Ġbought": 6745,
      "Ġden": 6746,
      "Ġdancing": 6747,
      "entions": 6748,
      "rot": 6749,
      "Ġlunch": 6750,
      "iden": 6751,
      "ĠAc": 6752,
      "ifically": 6753,
      "otic": 6754,
      "ĠSir": 6755,
      "ĠPat": 6756,
      "Ġimpressive": 6757,
      "andom": 6758,
      "Ġround": 6759,
      "ĠMoreover": 6760,
      "ruption": 6761,
      "Ġ21": 6762,
      "ĠGatsby": 6763,
      "ĠNumber": 6764,
      "Ġconserve": 6765,
      "Ġperm": 6766,
      "Ġcoll": 6767,
      "orders": 6768,
      "Ġregression": 6769,
      "Ġflo": 6770,
      "Ġpromise": 6771,
      "useum": 6772,
      "Ġattacks": 6773,
      "Ġages": 6774,
      "Ġfunctioning": 6775,
      "Ġâļ": 6776,
      "herent": 6777,
      "Ġdepression": 6778,
      "chiev": 6779,
      "ĠPlus": 6780,
      "exic": 6781,
      "Ġstret": 6782,
      "Ġstreet": 6783,
      "Ġinspiration": 6784,
      "ralia": 6785,
      "Ġlayout": 6786,
      "Ġproperly": 6787,
      "Ġprinters": 6788,
      "Ġsearching": 6789,
      "Ġauthority": 6790,
      "Ġindicating": 6791,
      "ĠReduc": 6792,
      "Ġhabitat": 6793,
      "Ġfrequency": 6794,
      "Ġmiddle": 6795,
      "Ġexperiencing": 6796,
      "Ġtranquil": 6797,
      "Ġjuice": 6798,
      "Ġgroceries": 6799,
      "ROM": 6800,
      "ĠRespons": 6801,
      "LECT": 6802,
      "Ġderivative": 6803,
      "Evaluate": 6804,
      "provoking": 6805,
      "22": 6806,
      "Am": 6807,
      "Bra": 6808,
      "Out": 6809,
      "Sh": 6810,
      "cm": 6811,
      "fol": 6812,
      "iers": 6813,
      "ªï¸ı": 6814,
      "°ï¸ı": 6815,
      "Ġten": 6816,
      "Ġtap": 6817,
      "inch": 6818,
      "reaching": 6819,
      "Ġsy": 6820,
      "Ġcash": 6821,
      "Ġcoding": 6822,
      "itarian": 6823,
      "Ġpizza": 6824,
      "Ġinner": 6825,
      "leg": 6826,
      "Ġoffere": 6827,
      "Ġboy": 6828,
      "icit": 6829,
      "Ġdim": 6830,
      "Ġdram": 6831,
      "Ġdense": 6832,
      "Ġdictionary": 6833,
      "rove": 6834,
      "Ġrely": 6835,
      "imming": 6836,
      "Ġgathered": 6837,
      "Ġisol": 6838,
      "structure": 6839,
      "ĠAS": 6840,
      "Ġhex": 6841,
      "Ġonto": 6842,
      "Ġends": 6843,
      "ĠCa": 6844,
      "ĠCity": 6845,
      "Ġintended": 6846,
      "Ġintelligent": 6847,
      "hers": 6848,
      "ĠPour": 6849,
      "acking": 6850,
      "Ġspect": 6851,
      "ogy": 6852,
      "Ġdeploy": 6853,
      "Ġmap": 6854,
      "rome": 6855,
      "ĠBar": 6856,
      "Ġcontract": 6857,
      "ĠFuture": 6858,
      "ĠFocus": 6859,
      "Ġsevere": 6860,
      "Ġapplying": 6861,
      "Ġack": 6862,
      "Ġdispos": 6863,
      "ardous": 6864,
      "ĠJack": 6865,
      "Ġworkforce": 6866,
      "Ġdoing": 6867,
      "Ġflood": 6868,
      "Ġfloor": 6869,
      "Ġinsurance": 6870,
      "Ġelev": 6871,
      "Ġbranch": 6872,
      "ĠðŁį²": 6873,
      "Ġprominent": 6874,
      "Ġdriven": 6875,
      "Ġexpressions": 6876,
      "Ġbeloved": 6877,
      "Ġmultip": 6878,
      "Ġevening": 6879,
      "Ġcapacity": 6880,
      "ĠðŁĩ¨": 6881,
      "ikely": 6882,
      "Ġcrisis": 6883,
      "Ġpopularity": 6884,
      "Ġpaint": 6885,
      "However": 6886,
      "Ġembracing": 6887,
      "Ġspirits": 6888,
      "Ġlengths": 6889,
      "ĠPriv": 6890,
      "Ġfigures": 6891,
      "Ġsongs": 6892,
      "Ġreminders": 6893,
      "weight": 6894,
      "ĠHTTP": 6895,
      "Ġdomains": 6896,
      "Ġadjective": 6897,
      "ĠPlanning": 6898,
      "Ġdepths": 6899,
      "...": 6900,
      "Ġfacilitate": 6901,
      "ĠComputer": 6902,
      "Ġ2023": 6903,
      "Ġcompliance": 6904,
      "Ġgrammatically": 6905,
      "ĠProgram": 6906,
      "Ġsubstitute": 6907,
      "Question": 6908,
      "Ġsleek": 6909,
      "ĠEldoria": 6910,
      "igmatic": 6911,
      "Ġcircumstances": 6912,
      "Ġoffered": 6913,
      "',": 6914,
      "21": 6915,
      "can": 6916,
      "iately": 6917,
      "mm": 6918,
      "zen": 6919,
      "Ľï¸ı": 6920,
      "hell": 6921,
      "Ġtherap": 6922,
      "Ġthesis": 6923,
      "Ġslight": 6924,
      "Ġcore": 6925,
      "Ġfront": 6926,
      "Ġpic": 6927,
      "Ġpush": 6928,
      "Ġmansion": 6929,
      "Ġbath": 6930,
      "Ġrent": 6931,
      "Ġhop": 6932,
      "Ġly": 6933,
      "Ġlake": 6934,
      "Ġstoring": 6935,
      "uristic": 6936,
      "ĠAre": 6937,
      "ĠSat": 6938,
      "Ġasking": 6939,
      "Ġonions": 6940,
      "Ġenerg": 6941,
      "Ġenigmatic": 6942,
      "ĠClean": 6943,
      "Ġalive": 6944,
      "Ġintu": 6945,
      "Ġsuc": 6946,
      "Ġsuff": 6947,
      "ĠPM": 6948,
      "ĠPay": 6949,
      "ptoms": 6950,
      "ĠBo": 6951,
      "Ġplot": 6952,
      "ĠThanks": 6953,
      "ĠFire": 6954,
      "Ġincorrect": 6955,
      "Ġunit": 6956,
      "ĠðŁĵ°": 6957,
      "phabet": 6958,
      "Ġ36": 6959,
      "Ġprocessed": 6960,
      "Ġrelative": 6961,
      "Ġphr": 6962,
      "Ġexpansion": 6963,
      "Ġexposure": 6964,
      "Ġequivalent": 6965,
      "Ġdelves": 6966,
      "ĠVe": 6967,
      "Ġplanets": 6968,
      "Ġconnecting": 6969,
      "Ġdriver": 6970,
      "Ġexpressed": 6971,
      "Ġmatrix": 6972,
      "Ġstanding": 6973,
      "Ġautomatically": 6974,
      "Ġverbs": 6975,
      "ĠConsist": 6976,
      "Ġdiscussing": 6977,
      "Ġprinter": 6978,
      "ographic": 6979,
      "Ġmysteries": 6980,
      "Ġestim": 6981,
      "ĠOrder": 6982,
      "Ġpayments": 6983,
      "Ġvolumes": 6984,
      "Ġmotivate": 6985,
      "Ġcompanion": 6986,
      "Ġportray": 6987,
      "Ġsimilarities": 6988,
      "Ġgreener": 6989,
      "rigued": 6990,
      "Ġcredibility": 6991,
      "Ġopinions": 6992,
      "Ġapplied": 6993,
      "Ġdisruptions": 6994,
      "ĠEconomic": 6995,
      "Ġconstantly": 6996,
      "Ġgrocery": 6997,
      "Ġcandidates": 6998,
      "ippet": 6999,
      "sql": 7000,
      "ĠEmbracing": 7001,
      "Ġscheduling": 7002,
      "ĠBattle": 7003,
      "Ġfulfillment": 7004,
      "ĠPhysical": 7005,
      "Ġkilomet": 7006,
      "Ġcolleagues": 7007,
      "Ġdeclarative": 7008,
      "ĠEncouraging": 7009,
      "chievous": 7010,
      "')": 7011,
      ")/": 7012,
      "bing": 7013,
      "col": 7014,
      "eat": 7015,
      "mely": 7016,
      "nal": 7017,
      "number": 7018,
      "rs": 7019,
      "uary": 7020,
      "Ġtast": 7021,
      "ora": 7022,
      "orient": 7023,
      "organ": 7024,
      "ingu": 7025,
      "Ġpict": 7026,
      "oup": 7027,
      "icular": 7028,
      "ashed": 7029,
      "ðŁĺ": 7030,
      "Ġloud": 7031,
      "ĠTitle": 7032,
      "Ġstead": 7033,
      "irds": 7034,
      "ĠSearch": 7035,
      "Ġconqu": 7036,
      "ably": 7037,
      "sect": 7038,
      "ĠCult": 7039,
      "Ġintellect": 7040,
      "Ġspell": 7041,
      "Ġrid": 7042,
      "ĠMus": 7043,
      "ĠMexic": 7044,
      "udes": 7045,
      "ĠDuring": 7046,
      "ĠLittle": 7047,
      "Ġfears": 7048,
      "ĠFlex": 7049,
      "Ġhelped": 7050,
      "ipitation": 7051,
      "Ġjump": 7052,
      "Ġcommercial": 7053,
      "Ġmanaged": 7054,
      "Ġproduced": 7055,
      "Ġstrive": 7056,
      "Ġphones": 7057,
      "anches": 7058,
      "Ġ500": 7059,
      "Ġpersonality": 7060,
      "Ġpoor": 7061,
      "ildren": 7062,
      "Ġbrill": 7063,
      "urniture": 7064,
      "ĠConduct": 7065,
      "Ġprofit": 7066,
      "Ġnoise": 7067,
      "ockchain": 7068,
      "Ġdemographics": 7069,
      "Ġparallel": 7070,
      "Ġbuildings": 7071,
      "roduction": 7072,
      "overn": 7073,
      "ĠArctic": 7074,
      "ðŁĵĬ": 7075,
      "Ġgrateful": 7076,
      "ĠðŁ¤ĸâľ¨": 7077,
      "Ġimplemented": 7078,
      "Ġshorter": 7079,
      "Ġslice": 7080,
      "Ġrepresenting": 7081,
      "Ġsuccessfully": 7082,
      "ĠGoals": 7083,
      "Ġjoining": 7084,
      "Ġturns": 7085,
      "box": 7086,
      "Ġexistence": 7087,
      "Ġcalls": 7088,
      "Ġmischievous": 7089,
      "value": 7090,
      "ĠCommunity": 7091,
      "points": 7092,
      "Ġwait": 7093,
      "Ġimmediately": 7094,
      "ĠAfrica": 7095,
      "Ġentrepreneurs": 7096,
      "Ġatomic": 7097,
      "ĠInflu": 7098,
      "ĠEmpire": 7099,
      "Ġuncertainty": 7100,
      "Ġneighbor": 7101,
      "Ġdiscounts": 7102,
      "ĠAutomation": 7103,
      "Ġvanilla": 7104,
      "Character": 7105,
      "Ġculinary": 7106,
      "Ġpercentage": 7107,
      "oriented": 7108,
      "OR": 7109,
      "Sur": 7110,
      "craft": 7111,
      "drop": 7112,
      "faces": 7113,
      "function": 7114,
      "hoot": 7115,
      "late": 7116,
      "vision": 7117,
      "Ġtour": 7118,
      "rest": 7119,
      "Ġsoph": 7120,
      "Ġfill": 7121,
      "anes": 7122,
      "ison": 7123,
      "enty": 7124,
      "Ġease": 7125,
      "ðŁĽ": 7126,
      "using": 7127,
      "ette": 7128,
      "eliness": 7129,
      "owers": 7130,
      "ithm": 7131,
      "amb": 7132,
      "agrams": 7133,
      "Ġexact": 7134,
      "ĠCook": 7135,
      "ĠPers": 7136,
      "anged": 7137,
      "Ġhaiku": 7138,
      "ĠWill": 7139,
      "ĠWelcome": 7140,
      "endicular": 7141,
      "ĠRiver": 7142,
      "ĠOper": 7143,
      "Ġ27": 7144,
      "ardian": 7145,
      "Ġanywhere": 7146,
      "ĠInit": 7147,
      "Ġrecovery": 7148,
      "Ġexperts": 7149,
      "Ġreduction": 7150,
      "Ġarts": 7151,
      "Ġpotatoes": 7152,
      "uccess": 7153,
      "Ġ45": 7154,
      "ðŁĮ±": 7155,
      "lla": 7156,
      "ĠVar": 7157,
      "ictional": 7158,
      "Ġbranches": 7159,
      "Ġvector": 7160,
      "Ġsunset": 7161,
      "Ġcareful": 7162,
      "Ġconfront": 7163,
      "Ġconsideration": 7164,
      "Ġcalculations": 7165,
      "Ġreturned": 7166,
      "Ġsubsequ": 7167,
      "ĠEmployee": 7168,
      "Ġsymptoms": 7169,
      "Ġtowering": 7170,
      "Ġprints": 7171,
      "Ġslog": 7172,
      "append": 7173,
      "Ġphotography": 7174,
      "Ġhydrated": 7175,
      "ĠOrange": 7176,
      "ĠðŁ¥¦": 7177,
      "Ġcompleting": 7178,
      "Ġgarn": 7179,
      "ĠInstagram": 7180,
      "ðŁ¥¦": 7181,
      "Ġcardiovascular": 7182,
      "Ġbarri": 7183,
      "Ġfraction": 7184,
      "Ġfarming": 7185,
      "Ġpairs": 7186,
      "include": 7187,
      "ĠIntroducing": 7188,
      "ĠStrong": 7189,
      "Ġoverwhelmed": 7190,
      "Ġbloom": 7191,
      "ĠEthical": 7192,
      "Ġshelter": 7193,
      "ĠPhotos": 7194,
      "ĠAustralia": 7195,
      "ĠBanana": 7196,
      "bullying": 7197,
      "Ġathlet": 7198,
      "Insert": 7199,
      "Ġmasterpiece": 7200,
      "Ġphrases": 7201,
      "PU": 7202,
      "Row": 7203,
      "Te": 7204,
      "Total": 7205,
      "dig": 7206,
      "fry": 7207,
      "ok": 7208,
      "person": 7209,
      "wise": 7210,
      "«ðŁĩ·": 7211,
      "µï¸ıâĢįâĻĤï¸ı": 7212,
      "Ġther": 7213,
      "orous": 7214,
      "Ġfont": 7215,
      "Ġwin": 7216,
      "Ġwave": 7217,
      "Ġinj": 7218,
      "Ġbene": 7219,
      "iments": 7220,
      "ĠTop": 7221,
      "ĠTaking": 7222,
      "Ġnation": 7223,
      "Ġnerv": 7224,
      "ravel": 7225,
      "style": 7226,
      "Ġstocks": 7227,
      "uration": 7228,
      "iff": 7229,
      "ĠServe": 7230,
      "Ġbeings": 7231,
      "abol": 7232,
      "abel": 7233,
      "Ġalphabet": 7234,
      "Ġrating": 7235,
      "Ġdeal": 7236,
      "ĠBob": 7237,
      "ĠDi": 7238,
      "ĠDid": 7239,
      "asters": 7240,
      "Ġabund": 7241,
      "ĠRuss": 7242,
      "ĠOther": 7243,
      "ĠOcean": 7244,
      "Ġresh": 7245,
      "Ġresume": 7246,
      "Ġinches": 7247,
      "Ġqual": 7248,
      "Ġclients": 7249,
      "Ġmanual": 7250,
      "obility": 7251,
      "orship": 7252,
      "Ġmodified": 7253,
      "Ġpositivity": 7254,
      "Ġproductive": 7255,
      "enses": 7256,
      "Ġtypical": 7257,
      "Ġequipped": 7258,
      "Ġmetal": 7259,
      "ommod": 7260,
      "Ġpreserve": 7261,
      "ĠðŁıĸï¸ı": 7262,
      "Ġclearing": 7263,
      "Ġinstitut": 7264,
      "Ġprofile": 7265,
      "Ġcomplexities": 7266,
      "Thank": 7267,
      "ĠðŁĴ»": 7268,
      "ĠExerc": 7269,
      "ccoli": 7270,
      "Ġoptimal": 7271,
      "Ġstreets": 7272,
      "ĠEngagement": 7273,
      "ĠEngland": 7274,
      "ĠWhisk": 7275,
      "Ġwindows": 7276,
      "Ġprinting": 7277,
      "Ġnegot": 7278,
      "Ġmarking": 7279,
      "Ġestablished": 7280,
      "ĠSche": 7281,
      "Choose": 7282,
      "Ġaffecting": 7283,
      "Ġperiods": 7284,
      "ĠHealthcare": 7285,
      "ĠBlockchain": 7286,
      "Ġtaxes": 7287,
      "Ġsurvive": 7288,
      "Ġestablishment": 7289,
      "Ġflavorful": 7290,
      "Ġfarmer": 7291,
      "Ġunderg": 7292,
      "ĠAtt": 7293,
      "ĠCollaboration": 7294,
      "Ġenthusiasm": 7295,
      "Ġfamiliar": 7296,
      "ĠWindows": 7297,
      "Ġbulbs": 7298,
      "Ġrolling": 7299,
      "Ġimmediate": 7300,
      "Ġacceler": 7301,
      "Ġlegendary": 7302,
      "Ġgravity": 7303,
      "Ġdeadlines": 7304,
      "Develop": 7305,
      "hearted": 7306,
      "Ġcamera": 7307,
      "Ġmentioned": 7308,
      "ĠIndustrial": 7309,
      "Ġsafeguard": 7310,
      "SELECT": 7311,
      "Ġcrowd": 7312,
      "Ġdiscrimination": 7313,
      "Ġauthenticity": 7314,
      "Ġremoving": 7315,
      "ĠRenewable": 7316,
      "Ġdevastating": 7317,
      "gypt": 7318,
      "Ġhazardous": 7319,
      "ĠÂ±": 7320,
      "24": 7321,
      "Product": 7322,
      "cies": 7323,
      "click": 7324,
      "fix": 7325,
      "look": 7326,
      "ww": 7327,
      "zes": 7328,
      "Ġ%": 7329,
      "Ġiron": 7330,
      "Ġawa": 7331,
      "Ġsite": 7332,
      "Ġsne": 7333,
      "Ġcere": 7334,
      "orph": 7335,
      "itational": 7336,
      "Ġfut": 7337,
      "Ġfine": 7338,
      "Ġfictional": 7339,
      "Ġmicro": 7340,
      "Ġbic": 7341,
      "Ġbonds": 7342,
      "asking": 7343,
      "asures": 7344,
      "racy": 7345,
      "ulf": 7346,
      "ĠSort": 7347,
      "ĠSud": 7348,
      "Ġconj": 7349,
      "Ġoranges": 7350,
      "ĠCour": 7351,
      "ĠPrior": 7352,
      "ĠðŁĮķ": 7353,
      "ĠEgypt": 7354,
      "ocado": 7355,
      "osite": 7356,
      "ositive": 7357,
      "Ġcomprom": 7358,
      "ĠMind": 7359,
      "ĠMary": 7360,
      "Ġshown": 7361,
      "Ġdisadvantages": 7362,
      "Their": 7363,
      "Ġdesert": 7364,
      "Ġnotation": 7365,
      "Ġherbs": 7366,
      "Ġdecentral": 7367,
      "ĠHeat": 7368,
      "rown": 7369,
      "Ġanalogy": 7370,
      "Ġbuzz": 7371,
      "ĠâĻ": 7372,
      "bersecurity": 7373,
      "Ġaddresses": 7374,
      "ĠðŁĲ¦": 7375,
      "Ġtimely": 7376,
      "ycled": 7377,
      "Ġresear": 7378,
      "Ġopened": 7379,
      "ðŁĵ±": 7380,
      "Ġprediction": 7381,
      "Ġtraveler": 7382,
      "Ġtraveling": 7383,
      "Ġvisualization": 7384,
      "Ġdiscussion": 7385,
      "Ġconsistently": 7386,
      "Ġmelting": 7387,
      "driving": 7388,
      "Ġviews": 7389,
      "Ġprecipitation": 7390,
      "Ġsnacks": 7391,
      "Ġsnippet": 7392,
      "Ġthoughtful": 7393,
      "Ġparticipation": 7394,
      "Ġburst": 7395,
      "Ġmitigating": 7396,
      "Ġcreamy": 7397,
      "Ġutilized": 7398,
      "Ġremaining": 7399,
      "Ġextremely": 7400,
      "Ġunfold": 7401,
      "Ġmolec": 7402,
      "Ġhosting": 7403,
      "ðŁ¤ĸ": 7404,
      "inoa": 7405,
      "ĠOffer": 7406,
      "Ġcandidate": 7407,
      "Ġwillingness": 7408,
      "Ġneutral": 7409,
      "Ġencompasses": 7410,
      "Ġslogan": 7411,
      "\"!": 7412,
      "89": 7413,
      "class": 7414,
      "electric": 7415,
      "hi": 7416,
      "oj": 7417,
      "product": 7418,
      "vas": 7419,
      "ºï¸ı": 7420,
      "Ġtired": 7421,
      "atility": 7422,
      "Ġcyc": 7423,
      "Ġcycling": 7424,
      "Ġfly": 7425,
      "Ġfills": 7426,
      "Ġfilling": 7427,
      "aluation": 7428,
      "Ġinhab": 7429,
      "Ġmouth": 7430,
      "Ġdile": 7431,
      "Ġdanced": 7432,
      "edia": 7433,
      "Ġlic": 7434,
      "eta": 7435,
      "ĠToday": 7436,
      "Ġnative": 7437,
      "idth": 7438,
      "Ġproverb": 7439,
      "ifts": 7440,
      "unte": 7441,
      "ams": 7442,
      "amil": 7443,
      "seen": 7444,
      "herit": 7445,
      "Ġchocolate": 7446,
      "ĠParis": 7447,
      "ĠPredict": 7448,
      "ĠEnd": 7449,
      "osion": 7450,
      "Ġadorn": 7451,
      "ĠBY": 7452,
      "ĠBer": 7453,
      "Ġwear": 7454,
      "ĠWrite": 7455,
      "Ġ->": 7456,
      "ĠFood": 7457,
      "Ġ23": 7458,
      "Ġarm": 7459,
      "Ġclause": 7460,
      "aped": 7461,
      "ĠNight": 7462,
      "ĠðŁĵħ": 7463,
      "Ġleaders": 7464,
      "Ġspecifically": 7465,
      "Ġacts": 7466,
      "Ġunderlying": 7467,
      "Ġamidst": 7468,
      "ensions": 7469,
      "rowth": 7470,
      "ubble": 7471,
      "Ġaccommod": 7472,
      "ĠðŁİ¤": 7473,
      "Ġsetbacks": 7474,
      "---": 7475,
      "Ġimaging": 7476,
      "ĠðŁįĮ": 7477,
      "Ġclassical": 7478,
      "ĠðŁıĽï¸ı": 7479,
      "Ġhumanity": 7480,
      "Ġdesigns": 7481,
      "Ġdrives": 7482,
      "Ġstatements": 7483,
      "Ġfierce": 7484,
      "Ġintegral": 7485,
      "ĠAlgorith": 7486,
      "Ġrecommendation": 7487,
      "Cont": 7488,
      "Ġwindow": 7489,
      "Ġeventually": 7490,
      "Ġgovernments": 7491,
      "processing": 7492,
      "apple": 7493,
      "Ġmystical": 7494,
      "Ġemphasizing": 7495,
      "Ġrepresentation": 7496,
      "Ġshoes": 7497,
      "Ġdidn": 7498,
      "Ġsymbols": 7499,
      "Ġrespectful": 7500,
      "cont": 7501,
      "Ġportion": 7502,
      "verse": 7503,
      "Ġdebt": 7504,
      "Ġliterary": 7505,
      "ĠDiscuss": 7506,
      "break": 7507,
      "Ġoutdoors": 7508,
      "Ġmathematics": 7509,
      "Ġcherish": 7510,
      "Ġconducting": 7511,
      "ĠDecision": 7512,
      "Ġfulfilling": 7513,
      "ĠâĺĢï¸ı": 7514,
      "ĠOrganize": 7515,
      "ĠImprove": 7516,
      "ĠPotter": 7517,
      "Ġframeworks": 7518,
      "Ġresonate": 7519,
      "bleshoot": 7520,
      "Ġentrepreneur": 7521,
      "ĠMonitoring": 7522,
      "Ġdivisible": 7523,
      "Ġhousing": 7524,
      "ĠâľĪï¸ı": 7525,
      "Ġrabbit": 7526,
      "Finally": 7527,
      "Ġslightly": 7528,
      "Ġintuitive": 7529,
      "Ġkilometers": 7530,
      "ĠPriorit": 7531,
      "App": 7532,
      "ED": 7533,
      "My": 7534,
      "Pl": 7535,
      "Par": 7536,
      "Please": 7537,
      "cr": 7538,
      "disc": 7539,
      "eem": 7540,
      "gr": 7541,
      "ipl": 7542,
      "paced": 7543,
      "yl": 7544,
      "âĺ": 7545,
      "Ġtack": 7546,
      "Ġske": 7547,
      "athetic": 7548,
      "orge": 7549,
      "Ġfiber": 7550,
      "Ġfurniture": 7551,
      "Ġpub": 7552,
      "Ġpork": 7553,
      "isure": 7554,
      "isper": 7555,
      "Ġwall": 7556,
      "Ġinquir": 7557,
      "Ġreactions": 7558,
      "ster": 7559,
      "stood": 7560,
      "igg": 7561,
      "Ġprop": 7562,
      "Ġbeans": 7563,
      "Ġbeacon": 7564,
      "agiar": 7565,
      "ĠCustom": 7566,
      "though": 7567,
      "Ġlean": 7568,
      "ĠHarry": 7569,
      "ache": 7570,
      "ĠEating": 7571,
      "angers": 7572,
      "ĠMr": 7573,
      "plit": 7574,
      "ĠBal": 7575,
      "Ġplenty": 7576,
      "ĠWord": 7577,
      "ĠRain": 7578,
      "Ġcontem": 7579,
      "Ġmeat": 7580,
      "ultane": 7581,
      "They": 7582,
      "Ġindeed": 7583,
      "never": 7584,
      "ĠðŁĵı": 7585,
      "ints": 7586,
      "Ġinterrog": 7587,
      "Ġprem": 7588,
      "plete": 7589,
      "Ġraises": 7590,
      "Ġregarding": 7591,
      "Ġsupported": 7592,
      "Ġreports": 7593,
      "olden": 7594,
      "ĠðŁıĭ": 7595,
      "Ġgrains": 7596,
      "Ġinstru": 7597,
      "Ġprogrammed": 7598,
      "Ġinputs": 7599,
      "ĠðŁĲĺ": 7600,
      "Ġnetworking": 7601,
      "ðŁĩª": 7602,
      "ĠðŁ§ª": 7603,
      "Ġtested": 7604,
      "Ġelectronic": 7605,
      "Ġparticles": 7606,
      "Ġcenturies": 7607,
      "Ġmeetings": 7608,
      "Ġimmense": 7609,
      "Ġpreventing": 7610,
      "ðŁĳ¨âĢį": 7611,
      "Ġbreakdown": 7612,
      "Ġtalent": 7613,
      "Ġroute": 7614,
      "Ġrouter": 7615,
      "ĠInclude": 7616,
      "Ġsimpler": 7617,
      "Ġultimate": 7618,
      "Ġnumerical": 7619,
      "ĠSelect": 7620,
      "Ġstraight": 7621,
      "ĠðŁķµï¸ıâĢįâĻĤï¸ı": 7622,
      "Ġgained": 7623,
      "ĠCustomerID": 7624,
      "Ġadjustments": 7625,
      "Ġsurrounded": 7626,
      "Ġholiday": 7627,
      "nowned": 7628,
      "Ġcelebrated": 7629,
      "Ġprospect": 7630,
      "Ġsilver": 7631,
      "ĠGerman": 7632,
      "Ġrhyme": 7633,
      "Ġrequests": 7634,
      "Ġallowed": 7635,
      "Array": 7636,
      "Ġsatisfying": 7637,
      "rolling": 7638,
      "Ġpenalty": 7639,
      "ĠMaintain": 7640,
      "Ġgrammatical": 7641,
      "Ġproposed": 7642,
      "ĠAfrican": 7643,
      "ĠNetwork": 7644,
      "Ġsyntax": 7645,
      "Ġgradually": 7646,
      "Ġbroader": 7647,
      "Ġsusp": 7648,
      "ĠAccount": 7649,
      "ĠSubject": 7650,
      "ugging": 7651,
      "Ġnormal": 7652,
      "Ġreputation": 7653,
      "ĠProfess": 7654,
      "Ġdoub": 7655,
      "Ġcautious": 7656,
      "Ġspinach": 7657,
      "Ġratio": 7658,
      "Ġhesit": 7659,
      "Ġfabric": 7660,
      "ĠRecognition": 7661,
      "folio": 7662,
      "structured": 7663,
      "ithmetic": 7664,
      "Ġfuturistic": 7665,
      "Ġadorned": 7666,
      "23": 7667,
      "200": 7668,
      "Based": 7669,
      "ES": 7670,
      "Each": 7671,
      "Fi": 7672,
      "Read": 7673,
      "aust": 7674,
      "bur": 7675,
      "hors": 7676,
      "rating": 7677,
      "|--------": 7678,
      "§ï¸ı": 7679,
      "onents": 7680,
      "Ġsad": 7681,
      "enny": 7682,
      "Ġcas": 7683,
      "itical": 7684,
      "Ġow": 7685,
      "Ġfed": 7686,
      "Ġwake": 7687,
      "Ġwants": 7688,
      "Ġwalls": 7689,
      "rote": 7690,
      "Ġeerie": 7691,
      "ðŁĹ": 7692,
      "omb": 7693,
      "Ġreaches": 7694,
      "Ġrenowned": 7695,
      "Ġham": 7696,
      "Ġhues": 7697,
      "Ġhosp": 7698,
      "Ġhiking": 7699,
      "Ġharsh": 7700,
      "imon": 7701,
      "urch": 7702,
      "ĠAh": 7703,
      "Ġiterate": 7704,
      "ĠCivil": 7705,
      "emade": 7706,
      "Ġsuit": 7707,
      "Ġimplies": 7708,
      "Ġcomplement": 7709,
      "outs": 7710,
      "Ġdates": 7711,
      "Ġquart": 7712,
      "Ġ26": 7713,
      "Ġevaluation": 7714,
      "ĠInput": 7715,
      "Ġherb": 7716,
      "Ġrelig": 7717,
      "Ġartwork": 7718,
      "Ġimpacted": 7719,
      "Ġraised": 7720,
      "enges": 7721,
      "Ġdevelopments": 7722,
      "Ġformation": 7723,
      "Ġfunny": 7724,
      "Ġpolar": 7725,
      "Ġexplicit": 7726,
      "Ġflat": 7727,
      "ĠProper": 7728,
      "Ġfunctional": 7729,
      "Ġlaun": 7730,
      "Ġresulted": 7731,
      "Ġchecks": 7732,
      "Ġownership": 7733,
      "Ġdrink": 7734,
      "Ġlandf": 7735,
      "Ġthank": 7736,
      "Ġsalary": 7737,
      "insp": 7738,
      "Ġmonarchy": 7739,
      "Ġtempl": 7740,
      "Ġtrium": 7741,
      "ĠðŁĩ«ðŁĩ·": 7742,
      "Ġmindset": 7743,
      "pring": 7744,
      "scale": 7745,
      "Ġconsume": 7746,
      "Ġsimile": 7747,
      "Ġclearly": 7748,
      "Ġmarg": 7749,
      "Ġrepresented": 7750,
      "Ġrecipes": 7751,
      "Ġtransformative": 7752,
      "Ġpurchasing": 7753,
      "();": 7754,
      "Ġimagery": 7755,
      "Ġdomain": 7756,
      "Ġmillions": 7757,
      "Ġheavily": 7758,
      "Ġcompassionate": 7759,
      "Ġrewrite": 7760,
      "ĠAccessibility": 7761,
      "Ġtomato": 7762,
      "numbers": 7763,
      "Ġcoordinates": 7764,
      "Ġcyberbullying": 7765,
      "Ġcommands": 7766,
      "Ġdescriptions": 7767,
      "Ġnucle": 7768,
      "Ġoverwhelming": 7769,
      "Ġhyperpar": 7770,
      "Ġperception": 7771,
      "sqrt": 7772,
      "Translate": 7773,
      "Ġwaters": 7774,
      "Ġmalicious": 7775,
      "Ġbattery": 7776,
      "Ġdisappoint": 7777,
      "Ġrewarding": 7778,
      "ĠEnhanced": 7779,
      "ĠQuantum": 7780,
      "ĠðŁĩ®ðŁĩ³": 7781,
      "Ġdownt": 7782,
      "Ġsqrt": 7783,
      "ĠPrivacy": 7784,
      "->": 7785,
      "\\)": 7786,
      "];": 7787,
      "^(": 7788,
      "cl": 7789,
      "crast": 7790,
      "fl": 7791,
      "ham": 7792,
      "log": 7793,
      "then": 7794,
      "uing": 7795,
      "vis": 7796,
      "win": 7797,
      "ĠÏĢ": 7798,
      "Ĳâķ": 7799,
      "Ġaware": 7800,
      "rer": 7801,
      "Ġsan": 7802,
      "Ġsod": 7803,
      "Ġcart": 7804,
      "itter": 7805,
      "Ġfare": 7806,
      "alian": 7807,
      "Ġpound": 7808,
      "icting": 7809,
      "arrow": 7810,
      "Ġdu": 7811,
      "eding": 7812,
      "ĠTreat": 7813,
      "ĠTotal": 7814,
      "Ġnations": 7815,
      "olf": 7816,
      "Ġstation": 7817,
      "Ġleverage": 7818,
      "Ġleisure": 7819,
      "ĠHist": 7820,
      "ĠðŁĮİ": 7821,
      "ĠðŁĮĻ": 7822,
      "ĠEvent": 7823,
      "ocab": 7824,
      "Ġrural": 7825,
      "ĠItalian": 7826,
      "ĠBas": 7827,
      "Ġweeks": 7828,
      "ĠDiv": 7829,
      "ĠLeg": 7830,
      "Ġquot": 7831,
      "Ġate": 7832,
      "ĠGar": 7833,
      "ĠGovern": 7834,
      "Ġarithmetic": 7835,
      "Ġclock": 7836,
      "Ġdisaster": 7837,
      "ferent": 7838,
      "ĠNations": 7839,
      "ĠUltimately": 7840,
      "ĠIns": 7841,
      "Ġnoticed": 7842,
      "olute": 7843,
      "nswer": 7844,
      "ĠJour": 7845,
      "ĠJuly": 7846,
      "ancy": 7847,
      "Ġartistic": 7848,
      "Ġraw": 7849,
      "Ġsigns": 7850,
      "Ġrespiration": 7851,
      "Ġequitable": 7852,
      "Ġcharging": 7853,
      "Ġtexture": 7854,
      "Ġvisited": 7855,
      "Ġfinish": 7856,
      "Ġrefine": 7857,
      "Ġgrad": 7858,
      "ymes": 7859,
      "Ġprotoc": 7860,
      "Ġvegan": 7861,
      "hereal": 7862,
      "Ġaddressed": 7863,
      "ĠðŁĲį": 7864,
      "Ġbrands": 7865,
      "rencies": 7866,
      "Ġpracticing": 7867,
      "ĠðŁĴ¡": 7868,
      "Ġparad": 7869,
      "Ġobjective": 7870,
      "ĠðŁĵļâľ¨": 7871,
      "ĠExample": 7872,
      "Ġtried": 7873,
      "Ġsubt": 7874,
      "ĠEmot": 7875,
      "Ġinvestors": 7876,
      "Ġemployment": 7877,
      "ffectiveness": 7878,
      "Ġsimultane": 7879,
      "Ġadaptability": 7880,
      "Ġarrived": 7881,
      "Ġempathetic": 7882,
      "process": 7883,
      "Ġrepresentative": 7884,
      "ĠCollection": 7885,
      "ðŁİ¶": 7886,
      "ĠQuality": 7887,
      "Ġ\\]": 7888,
      "Ġtreatments": 7889,
      "ĠUsers": 7890,
      "Ġguiding": 7891,
      "ĠContact": 7892,
      "ependence": 7893,
      "const": 7894,
      "Ġjoke": 7895,
      "Ġshapes": 7896,
      "Ġbrightly": 7897,
      "Ġanswers": 7898,
      "Ġbrother": 7899,
      "Ġprecious": 7900,
      "Ġuniversal": 7901,
      "ĠâĢĵ": 7902,
      "Which": 7903,
      "Ġdivision": 7904,
      "Ġstorms": 7905,
      "Ġevaluated": 7906,
      "Ġstruggling": 7907,
      "Ġwalked": 7908,
      "optional": 7909,
      "Ġincorporate": 7910,
      "Ġsocieties": 7911,
      "Ġbelonging": 7912,
      "Ġpreparing": 7913,
      "Ġgraphics": 7914,
      "Ġopposite": 7915,
      "Ġventure": 7916,
      "Ġfantasy": 7917,
      "Ġexcellence": 7918,
      "abetes": 7919,
      "Ġthoroughly": 7920,
      "ĠBrand": 7921,
      "Enjoy": 7922,
      "Ġattributes": 7923,
      "Ġcompounds": 7924,
      "Ġvulnerabilities": 7925,
      "Ġmenu": 7926,
      "Ġoccasion": 7927,
      "Ġpsychological": 7928,
      "Ġnurturing": 7929,
      "ĠContinuous": 7930,
      "ĠGreek": 7931,
      "ĠExercise": 7932,
      "ĠBerlin": 7933,
      "28": 7934,
      "Dis": 7935,
      "Dear": 7936,
      "Gu": 7937,
      "Up": 7938,
      "ev": 7939,
      "ey": 7940,
      "fire": 7941,
      "hane": 7942,
      "hops": 7943,
      "iam": 7944,
      "mal": 7945,
      "pass": 7946,
      "vable": 7947,
      "wh": 7948,
      "Ġvel": 7949,
      "Ġchess": 7950,
      "itage": 7951,
      "itasking": 7952,
      "Ġfer": 7953,
      "Ġwrote": 7954,
      "Ġdust": 7955,
      "Ġrej": 7956,
      "Ġhit": 7957,
      "Ġlater": 7958,
      "ĠðŁĻ": 7959,
      "Ġthin": 7960,
      "ĠTV": 7961,
      "ĠTry": 7962,
      "Ġnet": 7963,
      "Ġforgot": 7964,
      "eli": 7965,
      "eline": 7966,
      "ĠSl": 7967,
      "ĠSeek": 7968,
      "Ġbee": 7969,
      "ĠCamp": 7970,
      "ĠCalculate": 7971,
      "rizz": 7972,
      "empt": 7973,
      "Ġalike": 7974,
      "resent": 7975,
      "Ġwhisk": 7976,
      "ocur": 7977,
      "ocument": 7978,
      "ĠMat": 7979,
      "ĠMoon": 7980,
      "ĠWi": 7981,
      "ĠWest": 7982,
      "ĠDem": 7983,
      "Ġunt": 7984,
      "Ġunsu": 7985,
      "osting": 7986,
      "aping": 7987,
      "Ġtrag": 7988,
      "nowled": 7989,
      "Ġevolve": 7990,
      "ĠJoin": 7991,
      "Ġmodify": 7992,
      "Ġdecl": 7993,
      "Ġdecline": 7994,
      "ĠStar": 7995,
      "Ġrare": 7996,
      "engers": 7997,
      "Ġdeveloper": 7998,
      "Ġcarried": 7999,
      "heses": 8000,
      "hips": 8001,
      "ĠðŁĺĦ": 8002,
      "ĠVin": 8003,
      "olutional": 8004,
      "Ġelephant": 8005,
      "ĠðŁļ¶âĢįâĻĤï¸ı": 8006,
      "Ġrefrig": 8007,
      "Ġende": 8008,
      "Ġcheer": 8009,
      "Ġchecking": 8010,
      "Ġgreatly": 8011,
      "Ġowners": 8012,
      "Ġdistractions": 8013,
      "ĠEnchant": 8014,
      "Ġsolace": 8015,
      "Ġ80": 8016,
      "Ġmatches": 8017,
      "Ġrealistic": 8018,
      "Ġdepartment": 8019,
      "Ġpossibility": 8020,
      "ĠðŁĴ¼": 8021,
      "Ġsubmit": 8022,
      "Ġcrim": 8023,
      "Ġcapturing": 8024,
      "ĠSpain": 8025,
      "ĠSpec": 8026,
      "Ġmilest": 8027,
      "Ġconversion": 8028,
      "Ġbelieved": 8029,
      "Ġcollectively": 8030,
      "Ġthrill": 8031,
      "ĠCompan": 8032,
      "Ġprecise": 8033,
      "Ġintegrated": 8034,
      "Ġencounters": 8035,
      "Ġaffected": 8036,
      "Ġcontainers": 8037,
      "ĠâĢĺ": 8038,
      "ĠðŁķĴ": 8039,
      "Ġstormy": 8040,
      "paration": 8041,
      "ĠðŁĹ£ï¸ı": 8042,
      "ĠCarbon": 8043,
      "Ġremained": 8044,
      "Ġgathering": 8045,
      "Ġappears": 8046,
      "Ġprosper": 8047,
      "aws": 8048,
      "Ġangles": 8049,
      "User": 8050,
      "Ġdiagnosis": 8051,
      "ĠInvesting": 8052,
      "inux": 8053,
      "Ġcouple": 8054,
      "ðŁ¤Ŀ": 8055,
      "Ġunlock": 8056,
      "Ġescape": 8057,
      "ĠConclusion": 8058,
      "Ġinstallation": 8059,
      "Ġdangerous": 8060,
      "ĠMilo": 8061,
      "Ġperpendicular": 8062,
      "ĠJuliet": 8063,
      "Ġloneliness": 8064,
      "Ġconcentration": 8065,
      "Ġneurons": 8066,
      "ĠAngel": 8067,
      "Ġelectronics": 8068,
      "ĠðŁ§ĺâĢįâĻĤï¸ı": 8069,
      "ĠReducing": 8070,
      "Brainstorm": 8071,
      "Ġdisposal": 8072,
      "Ġpicnic": 8073,
      "Ġbeneath": 8074,
      "Ġinhabit": 8075,
      "ĠPredictive": 8076,
      "Ġinterrogative": 8077,
      ".)": 8078,
      "76": 8079,
      "AB": 8080,
      "AM": 8081,
      "FROM": 8082,
      "cat": 8083,
      "mind": 8084,
      "night": 8085,
      "erob": 8086,
      "Ġsending": 8087,
      "Ġpushing": 8088,
      "left": 8089,
      "edy": 8090,
      "Ġreef": 8091,
      "Ġhurric": 8092,
      "cell": 8093,
      "cerer": 8094,
      "etch": 8095,
      "ĠTr": 8096,
      "ĠTem": 8097,
      "Ġnecess": 8098,
      "ollow": 8099,
      "ĠIoT": 8100,
      "ulary": 8101,
      "ago": 8102,
      "Ġcancer": 8103,
      "Ġcanvas": 8104,
      "Ġinters": 8105,
      "ĠHappy": 8106,
      "actic": 8107,
      "Ġimpression": 8108,
      "ander": 8109,
      "osen": 8110,
      "Ġcompares": 8111,
      "angered": 8112,
      "asted": 8113,
      "ĠRest": 8114,
      "ĠRandom": 8115,
      "Ġresidents": 8116,
      "ĠFre": 8117,
      "ĠFresh": 8118,
      "Ġemoj": 8119,
      "Ġquiz": 8120,
      "Ġarms": 8121,
      "Ġdisasters": 8122,
      "Ġtrading": 8123,
      "enerated": 8124,
      "ervices": 8125,
      "Ġproduces": 8126,
      "Ġconscious": 8127,
      "ĠðŁĵī": 8128,
      "Ġstranger": 8129,
      "Ġrecurs": 8130,
      "Ġassum": 8131,
      "Ġinviting": 8132,
      "Ġprocessor": 8133,
      "Ġpeak": 8134,
      "Ġmode": 8135,
      "Ġtransaction": 8136,
      "aked": 8137,
      "Ġactually": 8138,
      "ensor": 8139,
      "Ġsignal": 8140,
      "Ġseconds": 8141,
      "Ġcarrots": 8142,
      "Ġcaf": 8143,
      "Ġcharity": 8144,
      "ĠðŁİ²": 8145,
      "Ġsummarize": 8146,
      "ĠProcess": 8147,
      "ĠProject": 8148,
      "ĠðŁįĵ": 8149,
      "Ġapproached": 8150,
      "Ġfinances": 8151,
      "ĠðŁıĻï¸ı": 8152,
      "Ġchef": 8153,
      "Ġpositively": 8154,
      "Ġpopulations": 8155,
      "Ġcourses": 8156,
      "portation": 8157,
      "ĠðŁ§¬": 8158,
      "Ġhappen": 8159,
      "ðŁĴ¡": 8160,
      "Ġboiling": 8161,
      "ðŁįĮ": 8162,
      "Ġpresented": 8163,
      "Ġinfluences": 8164,
      "Ġcorrected": 8165,
      "Ġgovernance": 8166,
      "bye": 8167,
      "Ġbasis": 8168,
      "Ġcollecting": 8169,
      "Ġdiabetes": 8170,
      "venience": 8171,
      "Ġ180": 8172,
      "Ġlowercase": 8173,
      "Ġchoosing": 8174,
      "Ġavoiding": 8175,
      "Ġzero": 8176,
      "Ġrestaurants": 8177,
      "Ġmisuse": 8178,
      "Ġinfluencing": 8179,
      "Ġsectors": 8180,
      "Ġvariations": 8181,
      "Ġlabel": 8182,
      "Ġunders": 8183,
      "Ġstylish": 8184,
      "Ġsatisfied": 8185,
      "Ġassignment": 8186,
      "Ġhomemade": 8187,
      "Ġcarrying": 8188,
      "Ġfactorial": 8189,
      "Ġdaunting": 8190,
      "ĠImproved": 8191,
      "ĠTesting": 8192,
      "Ġstrawberries": 8193,
      "ĠHuman": 8194,
      "Ġgravitational": 8195,
      "ĠEmbrace": 8196,
      "Ġbillion": 8197,
      "ĠElephant": 8198,
      "Ġweaknesses": 8199,
      "Ġincentives": 8200,
      "ĠLastly": 8201,
      "Ġsprinkle": 8202,
      "ĠAPI": 8203,
      "Ġambiance": 8204,
      "Ġaroma": 8205,
      "Ġpronoun": 8206,
      "Ġpapers": 8207,
      "Surface": 8208,
      "ĠSchedule": 8209,
      "Ġresearchers": 8210,
      "ĠðŁıĭï¸ıâĢįâĻĤï¸ı": 8211,
      "Ġlandfills": 8212,
      "crastination": 8213,
      "ocabulary": 8214,
      "Ġsimultaneously": 8215,
      "elihood": 8216,
      "minded": 8217,
      "33": 8218,
      "AC": 8219,
      "BM": 8220,
      "CH": 8221,
      "Chor": 8222,
      "Next": 8223,
      "^-": 8224,
      "bed": 8225,
      "do": 8226,
      "father": 8227,
      "lation": 8228,
      "label": 8229,
      "rific": 8230,
      "sort": 8231,
      "such": 8232,
      "âĿ": 8233,
      "Ŀï¸ı": 8234,
      "onent": 8235,
      "Ġcovered": 8236,
      "Ġfib": 8237,
      "ales": 8238,
      "Ġwish": 8239,
      "ounce": 8240,
      "Ġmobility": 8241,
      "Ġdrop": 8242,
      "ðŁķ": 8243,
      "Ġrept": 8244,
      "Ġloves": 8245,
      "Ġlux": 8246,
      "oln": 8247,
      "elled": 8248,
      "ĠAwareness": 8249,
      "ivia": 8250,
      "irations": 8251,
      "iratory": 8252,
      "ĠSn": 8253,
      "Ġaside": 8254,
      "Ġascending": 8255,
      "Ġcomments": 8256,
      "ĠCut": 8257,
      "ĠCall": 8258,
      "ĠChatbot": 8259,
      "ective": 8260,
      "employment": 8261,
      "Ġintensity": 8262,
      "ustle": 8263,
      "ĠðŁĮ¹": 8264,
      "ĠEd": 8265,
      "ogging": 8266,
      "Ġadult": 8267,
      "Ġadverb": 8268,
      "ĠBro": 8269,
      "Ġweights": 8270,
      "ĠLinux": 8271,
      "ĠForm": 8272,
      "ĠForest": 8273,
      "Ġmeant": 8274,
      "Ġ22": 8275,
      "Ġappoint": 8276,
      "Ġscent": 8277,
      "Ġsoy": 8278,
      "Ġdesk": 8279,
      "Ġconsent": 8280,
      "Ġstrict": 8281,
      "Ġcustomization": 8282,
      "Ġtwist": 8283,
      "Ġpositions": 8284,
      "Ġphase": 8285,
      "ĠStat": 8286,
      "Ġarticles": 8287,
      "Ġlists": 8288,
      "tains": 8289,
      "onder": 8290,
      "Ġcovering": 8291,
      "Ġservers": 8292,
      "Ġaccidents": 8293,
      "Ġmetabol": 8294,
      "ðŁĮĪ": 8295,
      "Ġdelay": 8296,
      "Ġregulation": 8297,
      "blem": 8298,
      "Ġwellness": 8299,
      "ĠðŁ¤Ĺ": 8300,
      "icken": 8301,
      "Ġattempt": 8302,
      "Ġextend": 8303,
      "Ġdrinks": 8304,
      "Ġidentified": 8305,
      "Ġresponsibly": 8306,
      "Ġachievable": 8307,
      "Ġrestrict": 8308,
      "ĠAlso": 8309,
      "Ġgrid": 8310,
      "Ġadaptable": 8311,
      "Ġrevolutionizing": 8312,
      "Ġrobotic": 8313,
      "Ġtravels": 8314,
      "Ġvegetarian": 8315,
      "Ġconversational": 8316,
      "ĠShow": 8317,
      "Ġnavigating": 8318,
      "ĠScience": 8319,
      "Ġtransforming": 8320,
      "Ġvolunte": 8321,
      "Ġspeeds": 8322,
      "Ġbananas": 8323,
      "Ġstreaming": 8324,
      "Ġportfolio": 8325,
      "ðŁļĢ": 8326,
      "Ġlikes": 8327,
      "Ġaffects": 8328,
      "Ġsweetness": 8329,
      "Ġpacked": 8330,
      "Ġroads": 8331,
      "valuation": 8332,
      "Ġmonthly": 8333,
      "Ġsection": 8334,
      "Ġgeomet": 8335,
      "Ġselecting": 8336,
      "Ġbelongs": 8337,
      "Ġenthusiasts": 8338,
      "ĠOptimize": 8339,
      "Ġmammal": 8340,
      "Ġcivilization": 8341,
      "Ġagreement": 8342,
      "Ġresonates": 8343,
      "ĠKingdom": 8344,
      "Ġincentiv": 8345,
      "Ġdemocratic": 8346,
      "Ġsemi": 8347,
      "Ġaspirations": 8348,
      "Ġspoken": 8349,
      "Ġbarriers": 8350,
      "Ġnervous": 8351,
      "Ġdecentralized": 8352,
      "agiarism": 8353,
      "Ġcasual": 8354,
      "Ġfarewell": 8355,
      "erobic": 8356,
      "Chorus": 8357,
      "':": 8358,
      ")]": 8359,
      "CO": 8360,
      "Date": 8361,
      "End": 8362,
      "GB": 8363,
      "Since": 8364,
      "Use": 8365,
      "]:": 8366,
      "bies": 8367,
      "fly": 8368,
      "from": 8369,
      "js": 8370,
      "ka": 8371,
      "size": 8372,
      "tical": 8373,
      "uel": 8374,
      "Ġsoup": 8375,
      "lev": 8376,
      "Ġbid": 8377,
      "Ġbot": 8378,
      "Ġborn": 8379,
      "Ġep": 8380,
      "Ġrecharge": 8381,
      "ushed": 8382,
      "Ġhier": 8383,
      "Ġlinks": 8384,
      "ĠðŁ©": 8385,
      "Ġfort": 8386,
      "Ġforum": 8387,
      "utÃ©": 8388,
      "rain": 8389,
      "start": 8390,
      "Ġproport": 8391,
      "Ġvs": 8392,
      "emy": 8393,
      "ĠHar": 8394,
      "ĠHaving": 8395,
      "izer": 8396,
      "opol": 8397,
      "ĠðŁĮ¾": 8398,
      "ĠðŁĮĨ": 8399,
      "ĠðŁĮ§ï¸ı": 8400,
      "ĠEvaluation": 8401,
      "Ġride": 8402,
      "Ġhaven": 8403,
      "ĠBr": 8404,
      "Ġplaced": 8405,
      "Ġweigh": 8406,
      "ĠOl": 8407,
      "rup": 8408,
      "Ġune": 8409,
      "Ġunle": 8410,
      "Ġunravel": 8411,
      "Ġ29": 8412,
      "ĠGDP": 8413,
      "redded": 8414,
      "Ġwhenever": 8415,
      "erved": 8416,
      "Ġevoke": 8417,
      "Ġperil": 8418,
      "phone": 8419,
      "phants": 8420,
      "Ġrecycled": 8421,
      "Ġcolumn": 8422,
      "Ġexperiments": 8423,
      "ĠJames": 8424,
      "ĠJoe": 8425,
      "Ġadvocate": 8426,
      "Ġinformal": 8427,
      "Ġtransmit": 8428,
      "ondon": 8429,
      "Ġbloss": 8430,
      "Ġcoat": 8431,
      "Ġcoal": 8432,
      "Ġmethane": 8433,
      "ĠsautÃ©": 8434,
      "Ġregards": 8435,
      "Ġcomputational": 8436,
      "Ġpresident": 8437,
      "Ġpreservation": 8438,
      "Ġreverse": 8439,
      "ĠðŁı°": 8440,
      "Ġending": 8441,
      "Ġmultitasking": 8442,
      "Ġconfig": 8443,
      "Ġmoved": 8444,
      "cedented": 8445,
      "ðŁįĬ": 8446,
      "ðŁįİ": 8447,
      "Ġkeeps": 8448,
      "Ġinfluential": 8449,
      "ĠWhite": 8450,
      "Ġwinds": 8451,
      "ĠAppro": 8452,
      "Ġimmune": 8453,
      "precedented": 8454,
      "porary": 8455,
      "Ġvisuals": 8456,
      "Ġdiscussed": 8457,
      "Ġdrawn": 8458,
      "Ġsinging": 8459,
      "Ġminute": 8460,
      "ughter": 8461,
      "Ġsupplies": 8462,
      "hett": 8463,
      "Ġlikelihood": 8464,
      "ĠSeason": 8465,
      "Ġintroduced": 8466,
      "Ġsnack": 8467,
      "Ġlooked": 8468,
      "Ġaimed": 8469,
      "Ġparticipate": 8470,
      "Ġcybersecurity": 8471,
      "Ġevaluating": 8472,
      "Ġutilize": 8473,
      "Ġappeal": 8474,
      "ĠRobot": 8475,
      "ĠAssistant": 8476,
      "ĠDeforestation": 8477,
      "Ġconducted": 8478,
      "Ġsummarizing": 8479,
      "Ġsession": 8480,
      "Ġdressing": 8481,
      "Ġ2021": 8482,
      "Ġhyperb": 8483,
      "Ġrepeat": 8484,
      "Ġrotation": 8485,
      "ĠGeorge": 8486,
      "Ġdemocracy": 8487,
      "Ġbottom": 8488,
      "Ġmutual": 8489,
      "esterday": 8490,
      "Ġsurprise": 8491,
      "Ġrhythm": 8492,
      "Ġcinem": 8493,
      "Ġadministrative": 8494,
      "Ġelegant": 8495,
      "Ġbasketball": 8496,
      "ĠChallenges": 8497,
      "Ġmultiply": 8498,
      "Ġlyrics": 8499,
      "Ġsucceed": 8500,
      "Ġintellectual": 8501,
      "Ġbrilliant": 8502,
      "digit": 8503,
      "ĠWhiskers": 8504,
      "ĠâĻ»ï¸ı": 8505,
      "Ġfederal": 8506,
      "imonials": 8507,
      "Ġtragic": 8508,
      "((": 8509,
      "PA": 8510,
      "Set": 8511,
      "SQL": 8512,
      "Tw": 8513,
      "UP": 8514,
      "Ultimately": 8515,
      "bits": 8516,
      "lim": 8517,
      "mber": 8518,
      "part": 8519,
      "warming": 8520,
      "Ġtut": 8521,
      "Ġtender": 8522,
      "information": 8523,
      "esome": 8524,
      "alk": 8525,
      "Ġpad": 8526,
      "Ġpace": 8527,
      "Ġwit": 8528,
      "Ġtold": 8529,
      "Ġmer": 8530,
      "Ġmyth": 8531,
      "Ġmuseum": 8532,
      "Ġborder": 8533,
      "arks": 8534,
      "asp": 8535,
      "asant": 8536,
      "Ġreact": 8537,
      "Ġlung": 8538,
      "Ġnit": 8539,
      "olds": 8540,
      "ili": 8541,
      "Ġgap": 8542,
      "Ġstatic": 8543,
      "ifferent": 8544,
      "ulum": 8545,
      "otiv": 8546,
      "otely": 8547,
      "amic": 8548,
      "amed": 8549,
      "adecimal": 8550,
      "Ġvine": 8551,
      "Ġvivid": 8552,
      "through": 8553,
      "orem": 8554,
      "Ġleaks": 8555,
      "izable": 8556,
      "Ġchlor": 8557,
      "acc": 8558,
      "andoned": 8559,
      "ĠBu": 8560,
      "ĠBook": 8561,
      "Ġshipping": 8562,
      "ĠDI": 8563,
      "ĠDate": 8564,
      "ĠLinc": 8565,
      "Ġunwind": 8566,
      "ipe": 8567,
      "ĠGand": 8568,
      "Ġclues": 8569,
      "Ġfold": 8570,
      "althy": 8571,
      "licity": 8572,
      "Ġscans": 8573,
      "Ġevil": 8574,
      "Ġovercoming": 8575,
      "Ġstrange": 8576,
      "Ġinvention": 8577,
      "Ġallocation": 8578,
      "Ġadvis": 8579,
      "Ġinformative": 8580,
      "ĠStir": 8581,
      "Ġactors": 8582,
      "Ġcommunic": 8583,
      "Ġoffic": 8584,
      "rame": 8585,
      "Ġforming": 8586,
      "Ġcarries": 8587,
      "Ġdoctor": 8588,
      "Ġskilled": 8589,
      "Ġpoll": 8590,
      "Ġdelve": 8591,
      "Ġremotely": 8592,
      "Ġpersonalize": 8593,
      "ĠðŁıĢ": 8594,
      "Ġattack": 8595,
      "Ġago": 8596,
      "Ġlaid": 8597,
      "Ġedges": 8598,
      "Ġcurr": 8599,
      "Ġguests": 8600,
      "Ġbrainstorm": 8601,
      "Ġbreaches": 8602,
      "Ġdepict": 8603,
      "Ġaudiences": 8604,
      "Ġdigits": 8605,
      "ĠPlatform": 8606,
      "Ġfunds": 8607,
      "Ġcalculates": 8608,
      "Ġcaps": 8609,
      "Ġcombining": 8610,
      "ĠWebs": 8611,
      "Ġgene": 8612,
      "Ġgenres": 8613,
      "Ġbiological": 8614,
      "Ġgrass": 8615,
      "Ġcorrectly": 8616,
      "ĠWho": 8617,
      "ĠWhich": 8618,
      "ĠSpace": 8619,
      "Ġerosion": 8620,
      "Ġrecognizing": 8621,
      "Ġofferings": 8622,
      "Ġempowers": 8623,
      "Ġwalks": 8624,
      "Ġfalling": 8625,
      "worth": 8626,
      "isticated": 8627,
      "ĠðŁ¦ģ": 8628,
      "Ġtalented": 8629,
      "Ġcompetit": 8630,
      "Ġsubjects": 8631,
      "ĠNews": 8632,
      "position": 8633,
      "ĠRecommend": 8634,
      "Ġbrighter": 8635,
      "Ġlosses": 8636,
      "Ġpolitics": 8637,
      "Ġintegrate": 8638,
      "Ġintegrating": 8639,
      "Ġbiggest": 8640,
      "Ġabsolutely": 8641,
      "ĠSetting": 8642,
      "Ġrelaxing": 8643,
      "ĠFeature": 8644,
      "radation": 8645,
      "Ġspeakers": 8646,
      "Ġgeograph": 8647,
      "ĠAssist": 8648,
      "Ġhorror": 8649,
      "Arrange": 8650,
      "Ġscales": 8651,
      "Ġaccordingly": 8652,
      "Ġmistake": 8653,
      "Ġwaiting": 8654,
      "ĠInternational": 8655,
      "Ġexhaust": 8656,
      "ROUP": 8657,
      "ĠMaintenance": 8658,
      "fitting": 8659,
      "Ġwatched": 8660,
      "Ġfailure": 8661,
      "Ġvictory": 8662,
      "Ġtroubleshoot": 8663,
      "Ġretrieve": 8664,
      "equate": 8665,
      "Ġelectrical": 8666,
      "Ġromantic": 8667,
      "ĠBias": 8668,
      "ĠAudience": 8669,
      "Outline": 8670,
      "Ġacknowled": 8671,
      "ĠFlexibility": 8672,
      "amiliar": 8673,
      "ĠPrioritize": 8674,
      "Ġinquiries": 8675,
      "Ġtriumph": 8676,
      "rizzle": 8677,
      "65": 8678,
      "Nature": 8679,
      "Number": 8680,
      "ON": 8681,
      "Take": 8682,
      "That": 8683,
      "\\]": 8684,
      "`.": 8685,
      "bow": 8686,
      "bling": 8687,
      "ler": 8688,
      "length": 8689,
      "mony": 8690,
      "nag": 8691,
      "rd": 8692,
      "viol": 8693,
      "Ġ:": 8694,
      "Ġtension": 8695,
      "Ġax": 8696,
      "Ġafra": 8697,
      "erted": 8698,
      "Ġsway": 8699,
      "Ġcoc": 8700,
      "Ġflowing": 8701,
      "Ġpets": 8702,
      "Ġwast": 8703,
      "Ġwelcome": 8704,
      "Ġbike": 8705,
      "icism": 8706,
      "Ġdol": 8707,
      "Ġdried": 8708,
      "Ġeight": 8709,
      "Ġears": 8710,
      "vector": 8711,
      "ushes": 8712,
      "ception": 8713,
      "ĠTrie": 8714,
      "Ġgate": 8715,
      "stigious": 8716,
      "ĠAp": 8717,
      "uls": 8718,
      "ulated": 8719,
      "mentation": 8720,
      "Ġanger": 8721,
      "adow": 8722,
      "Ġvow": 8723,
      "ĠCT": 8724,
      "ĠCur": 8725,
      "Ġusability": 8726,
      "Ġintake": 8727,
      "Ġintrig": 8728,
      "estry": 8729,
      "ĠHol": 8730,
      "ĠHouse": 8731,
      "impl": 8732,
      "ĠParm": 8733,
      "ĠPosition": 8734,
      "Ġ1000": 8735,
      "Ġspring": 8736,
      "ograp": 8737,
      "Ġrig": 8738,
      "ĠML": 8739,
      "ĠMem": 8740,
      "ĠMac": 8741,
      "ĠMand": 8742,
      "ĠBack": 8743,
      "uding": 8744,
      "Ġshore": 8745,
      "Ġupl": 8746,
      "ĠDay": 8747,
      "illance": 8748,
      "ĠRNA": 8749,
      "ĠLink": 8750,
      "ĠLED": 8751,
      "ĠLondon": 8752,
      "Ġunprecedented": 8753,
      "Ġseasons": 8754,
      "Ġjung": 8755,
      "ĠGod": 8756,
      "Ġscat": 8757,
      "Ġsoar": 8758,
      "Ġproducing": 8759,
      "Ġevident": 8760,
      "irect": 8761,
      "Ġsignals": 8762,
      "ĠVers": 8763,
      "ritten": 8764,
      "Ġbrush": 8765,
      "Ġvisiting": 8766,
      "Ġsurge": 8767,
      "Despite": 8768,
      "Ġentities": 8769,
      "Ġcorn": 8770,
      "Ġcoral": 8771,
      "Ġendangered": 8772,
      "Ġinstability": 8773,
      "Ġcurrency": 8774,
      "Ġgenerating": 8775,
      "Ġdrivers": 8776,
      "ĠAnother": 8777,
      "Ġfocusing": 8778,
      "airy": 8779,
      "Ġdefines": 8780,
      "Ġrestore": 8781,
      "ĠArm": 8782,
      "Ġcenters": 8783,
      "Ġsquares": 8784,
      "Ġpromotions": 8785,
      "Ġpainted": 8786,
      "Ġmarks": 8787,
      "Ġwondrous": 8788,
      "Ġstrengthen": 8789,
      "Ġguided": 8790,
      "Ġthrilled": 8791,
      "Ġparagraphs": 8792,
      "Ġrespective": 8793,
      "Ġspreading": 8794,
      "Ġradiant": 8795,
      "123": 8796,
      "Ġstatistics": 8797,
      "Ġpackaging": 8798,
      "Ġhousehold": 8799,
      "ĠInstall": 8800,
      "Ġloyal": 8801,
      "uilding": 8802,
      "Ġestablishing": 8803,
      "Ġfragr": 8804,
      "Ġencouraging": 8805,
      "Ġfairness": 8806,
      "Ġfootball": 8807,
      "ĠTwitter": 8808,
      "Ġsatisfy": 8809,
      "ĠButter": 8810,
      "++)": 8811,
      "Ġwhispered": 8812,
      "ĠPromote": 8813,
      "ĠRemove": 8814,
      "Ġaccepted": 8815,
      "ĠHighlight": 8816,
      "Ġpreferred": 8817,
      "ĠValue": 8818,
      "ĠPlayers": 8819,
      "Ġmuscle": 8820,
      "Ì¦Ì¦Ì¦Ì¦Ì¦Ì¦Ì¦Ì¦": 8821,
      "Ġcrops": 8822,
      "Ġprocedures": 8823,
      "Ġcompanionship": 8824,
      "Ġexcessive": 8825,
      "Ġrelativity": 8826,
      "Ġturbines": 8827,
      "Ġhexadecimal": 8828,
      "Ġtherapy": 8829,
      "ĠInfluenc": 8830,
      "Ġsophisticated": 8831,
      "Ġtemplate": 8832,
      "Ġcriminal": 8833,
      "Ġinhabitants": 8834,
      "Ġreefs": 8835,
      "ĠLincoln": 8836,
      "Ġafraid": 8837,
      "Ġjungle": 8838,
      "35": 8839,
      "43": 8840,
      "But": 8841,
      "CD": 8842,
      "Flow": 8843,
      "Pre": 8844,
      "Prop": 8845,
      "ault": 8846,
      "coh": 8847,
      "giving": 8848,
      "grad": 8849,
      "gien": 8850,
      "generated": 8851,
      "iest": 8852,
      "noon": 8853,
      "saving": 8854,
      "uction": 8855,
      "Ġ__": 8856,
      "Ĭï¸ı": 8857,
      "ŃĲ": 8858,
      "Ġta": 8859,
      "Ġtact": 8860,
      "onut": 8861,
      "oral": 8862,
      "esan": 8863,
      "itory": 8864,
      "itative": 8865,
      "alability": 8866,
      "Ġpig": 8867,
      "Ġwolf": 8868,
      "Ġinsect": 8869,
      "Ġmouse": 8870,
      "arc": 8871,
      "Ġlion": 8872,
      "Ġgun": 8873,
      "elt": 8874,
      "idable": 8875,
      "raints": 8876,
      "iger": 8877,
      "urdy": 8878,
      "ĠAug": 8879,
      "ĠAiden": 8880,
      "uler": 8881,
      "irling": 8882,
      "otyp": 8883,
      "ĠSince": 8884,
      "uning": 8885,
      "ague": 8886,
      "Ġiterative": 8887,
      "Ġvocabulary": 8888,
      "Ġintro": 8889,
      "esteem": 8890,
      "ĠHi": 8891,
      "opl": 8892,
      "Ġchosen": 8893,
      "ĠPositive": 8894,
      "ĠðŁĮªï¸ı": 8895,
      "ĠEgg": 8896,
      "osity": 8897,
      "Ġspicy": 8898,
      "ĠMid": 8899,
      "ĠMad": 8900,
      "ĠMobile": 8901,
      "ĠWow": 8902,
      "Ġshredded": 8903,
      "indrome": 8904,
      "ĠRub": 8905,
      "ĠRisk": 8906,
      "ĠLay": 8907,
      "Ġcontam": 8908,
      "ificent": 8909,
      "ĠFro": 8910,
      "Ġunable": 8911,
      "ĠGive": 8912,
      "ĠGroup": 8913,
      "ĠGrowth": 8914,
      "Ġkids": 8915,
      "Ġdisabilities": 8916,
      "fulness": 8917,
      "feren": 8918,
      "Ġuphold": 8919,
      "ĠUr": 8920,
      "ĠðŁĵ¸": 8921,
      "Ġpride": 8922,
      "Ġinterior": 8923,
      "Ġheritage": 8924,
      "ĠJob": 8925,
      "Ġpreference": 8926,
      "Ġpreparation": 8927,
      "Ġprestigious": 8928,
      "Ġtransmission": 8929,
      "ears": 8930,
      "Ġambit": 8931,
      "ordinate": 8932,
      "Ġpose": 8933,
      "Ġrespiratory": 8934,
      "Ġpolice": 8935,
      "Ġwherever": 8936,
      "ĠðŁįĥ": 8937,
      "Ġcalend": 8938,
      "Ġrevolves": 8939,
      "ĠðŁıŃ": 8940,
      "Ġagility": 8941,
      "Ġglobe": 8942,
      "Ġdesigning": 8943,
      "Ġforec": 8944,
      "Ġforemost": 8945,
      "Ġgrade": 8946,
      "Ġcurse": 8947,
      "Ġheartwarming": 8948,
      "Ġmultif": 8949,
      "ĠImagine": 8950,
      "ĠRequ": 8951,
      "Ġeducate": 8952,
      "Ġavocado": 8953,
      "ĠAsia": 8954,
      "Ġfewer": 8955,
      "roduce": 8956,
      "Ġcapability": 8957,
      "Ġoptimism": 8958,
      "Ġcrust": 8959,
      "Ġadapted": 8960,
      "Company": 8961,
      "Ġ\\)": 8962,
      "Ġhygien": 8963,
      "Ġledger": 8964,
      "Ġcontrols": 8965,
      "Ġexcel": 8966,
      "Ġpurchased": 8967,
      "Ġdiets": 8968,
      "Ġfunding": 8969,
      "Ġmanageable": 8970,
      "Ġemerging": 8971,
      "boarding": 8972,
      "Ġdifficulty": 8973,
      "Ġsimilarity": 8974,
      "Ġabsor": 8975,
      "Ġstrain": 8976,
      "Ġdisplays": 8977,
      "Ġhistoric": 8978,
      "Ġurgent": 8979,
      "Ġadjusting": 8980,
      "ĠFeatures": 8981,
      "Ġreminding": 8982,
      "Ġpressing": 8983,
      "Replace": 8984,
      "ĠTransportation": 8985,
      "ĠPrepare": 8986,
      "Ġfarmers": 8987,
      "Ġboundless": 8988,
      "Implement": 8989,
      "Ġmechanics": 8990,
      "Ġpanels": 8991,
      "Ġsummarization": 8992,
      "Ġscores": 8993,
      "iberty": 8994,
      "Ġfluff": 8995,
      "laim": 8996,
      "Ġexhib": 8997,
      "Ġteachers": 8998,
      "ĠHumans": 8999,
      "Ġreferred": 9000,
      "Ġconstructive": 9001,
      "Substitut": 9002,
      "ĠSkills": 9003,
      "Ġbirthday": 9004,
      "ĠâĿ¤ï¸ı": 9005,
      "ĠIncreased": 9006,
      "Ġpuzzle": 9007,
      "secut": 9008,
      "ĠInnovation": 9009,
      "Ġcrack": 9010,
      "Ġfrozen": 9011,
      "ĠMinim": 9012,
      "Ġwelcoming": 9013,
      "Ġsacrific": 9014,
      "Ġtapestry": 9015,
      "Ġflooding": 9016,
      "ĠðŁĩ¨ðŁĩ": 9017,
      "Ġsteady": 9018,
      "ĠTopic": 9019,
      "Ġabundant": 9020,
      "Ġinstitutions": 9021,
      "Ġhyperparameters": 9022,
      "Ġunsupervised": 9023,
      "ĠAngeles": 9024,
      "ĠDIY": 9025,
      "ĠGandhi": 9026,
      "ĠParmesan": 9027,
      "cohol": 9028,
      "Ġhygiene": 9029,
      "Aut": 9030,
      "During": 9031,
      "Disc": 9032,
      "Ent": 9033,
      "FA": 9034,
      "Form": 9035,
      "Object": 9036,
      "PE": 9037,
      "bage": 9038,
      "ean": 9039,
      "eans": 9040,
      "front": 9041,
      "hand": 9042,
      "net": 9043,
      "oons": 9044,
      "pack": 9045,
      "power": 9046,
      "paper": 9047,
      "sentence": 9048,
      "times": 9049,
      "uven": 9050,
      "width": 9051,
      "âĪ": 9052,
[...]
